{"version":"1.0","truncation":null,"padding":null,"added_tokens":[{"id":0,"special":true,"content":"[UNK]","single_word":false,"lstrip":false,"rstrip":false,"normalized":false}],"normalizer":null,"pre_tokenizer":{"type":"Whitespace"},"post_processor":null,"decoder":null,"model":{"type":"BPE","dropout":null,"unk_token":"[UNK]","continuing_subword_prefix":null,"end_of_word_suffix":null,"fuse_unk":false,"vocab":{"[UNK]":0,"!":1,"\"":2,"#":3,"$":4,"%":5,"&":6,"'":7,"(":8,")":9,"*":10,"+":11,",":12,"-":13,".":14,"/":15,"0":16,"1":17,"2":18,"3":19,"4":20,"5":21,"6":22,"7":23,"8":24,"9":25,":":26,";":27,"<":28,"=":29,">":30,"?":31,"@":32,"A":33,"B":34,"C":35,"D":36,"E":37,"F":38,"G":39,"H":40,"I":41,"J":42,"K":43,"L":44,"M":45,"N":46,"O":47,"P":48,"Q":49,"R":50,"S":51,"T":52,"U":53,"V":54,"W":55,"X":56,"Y":57,"Z":58,"[":59,"\\":60,"]":61,"^":62,"_":63,"`":64,"a":65,"b":66,"c":67,"d":68,"e":69,"f":70,"g":71,"h":72,"i":73,"j":74,"k":75,"l":76,"m":77,"n":78,"o":79,"p":80,"q":81,"r":82,"s":83,"t":84,"u":85,"v":86,"w":87,"x":88,"y":89,"z":90,"{":91,"|":92,"}":93,"~":94,"¡":95,"¢":96,"£":97,"¤":98,"¥":99,"¦":100,"§":101,"¨":102,"©":103,"ª":104,"«":105,"¬":106,"­":107,"®":108,"¯":109,"°":110,"±":111,"²":112,"³":113,"´":114,"µ":115,"¶":116,"·":117,"¸":118,"¹":119,"º":120,"»":121,"¼":122,"½":123,"¾":124,"¿":125,"À":126,"Á":127,"Â":128,"Ã":129,"Ä":130,"Å":131,"Æ":132,"Ç":133,"È":134,"É":135,"Ê":136,"Ë":137,"Ì":138,"Í":139,"Î":140,"Ï":141,"Ð":142,"Ñ":143,"Ò":144,"Ó":145,"Ô":146,"Õ":147,"Ö":148,"×":149,"Ø":150,"Ù":151,"Ú":152,"Û":153,"Ü":154,"Ý":155,"Þ":156,"ß":157,"à":158,"á":159,"â":160,"ã":161,"ä":162,"å":163,"æ":164,"ç":165,"è":166,"é":167,"ê":168,"ë":169,"ì":170,"í":171,"î":172,"ï":173,"ð":174,"ñ":175,"ò":176,"ó":177,"ô":178,"õ":179,"ö":180,"÷":181,"ø":182,"ù":183,"ú":184,"û":185,"ü":186,"ý":187,"þ":188,"ÿ":189,"Ā":190,"ā":191,"Ă":192,"ă":193,"Ą":194,"ą":195,"Ć":196,"ć":197,"ĉ":198,"ċ":199,"Č":200,"č":201,"Ď":202,"Đ":203,"đ":204,"Ē":205,"ē":206,"Ĕ":207,"ĕ":208,"Ė":209,"ė":210,"Ę":211,"ę":212,"Ě":213,"ě":214,"ĝ":215,"Ğ":216,"ğ":217,"ġ":218,"ģ":219,"ĥ":220,"ħ":221,"ĩ":222,"ī":223,"ĭ":224,"į":225,"İ":226,"ı":227,"ĵ":228,"ķ":229,"ļ":230,"ľ":231,"Ł":232,"ł":233,"Ń":234,"ń":235,"Ň":236,"ň":237,"ŋ":238,"Ō":239,"ō":240,"ŏ":241,"ő":242,"Œ":243,"œ":244,"ŕ":245,"Ř":246,"ř":247,"Ś":248,"ś":249,"ŝ":250,"Ş":251,"ş":252,"Š":253,"š":254,"ţ":255,"Ť":256,"ť":257,"Ŧ":258,"ũ":259,"ū":260,"ŭ":261,"Ů":262,"ů":263,"ű":264,"ŵ":265,"ŷ":266,"Ÿ":267,"Ź":268,"ź":269,"Ż":270,"ż":271,"Ž":272,"ž":273,"ƃ":274,"Ƈ":275,"Ɖ":276,"ƒ":277,"ƥ":278,"ǎ":279,"Ǭ":280,"ǻ":281,"ǽ":282,"ǿ":283,"Ȳ":284,"ɐ":285,"ɔ":286,"ə":287,"ɟ":288,"ɹ":289,"ʇ":290,"ʌ":291,"ʍ":292,"ʞ":293,"ʰ":294,"ʾ":295,"ˆ":296,"ˇ":297,"˘":298,"˙":299,"˜":300,"ˠ":301,"˭":302,"˺":303,"̓":304,"ͨ":305,"Ί":306,"Α":307,"Β":308,"Γ":309,"Δ":310,"Ε":311,"Η":312,"Θ":313,"Ι":314,"Κ":315,"Ρ":316,"Σ":317,"Τ":318,"Φ":319,"Ω":320,"ά":321,"έ":322,"ί":323,"α":324,"β":325,"ε":326,"η":327,"θ":328,"ι":329,"κ":330,"λ":331,"μ":332,"ν":333,"ο":334,"π":335,"ρ":336,"ς":337,"σ":338,"τ":339,"υ":340,"φ":341,"ό":342,"ϑ":343,"Ѐ":344,"І":345,"А":346,"Б":347,"В":348,"Г":349,"Д":350,"Е":351,"Ж":352,"З":353,"И":354,"Й":355,"К":356,"Л":357,"М":358,"Н":359,"О":360,"П":361,"Р":362,"С":363,"Т":364,"У":365,"Ф":366,"Х":367,"Ц":368,"Ч":369,"Ш":370,"Щ":371,"Ъ":372,"Ы":373,"Ь":374,"Э":375,"Ю":376,"Я":377,"а":378,"б":379,"в":380,"г":381,"д":382,"е":383,"ж":384,"з":385,"и":386,"й":387,"к":388,"л":389,"м":390,"н":391,"о":392,"п":393,"р":394,"с":395,"т":396,"у":397,"ф":398,"х":399,"ц":400,"ч":401,"ш":402,"щ":403,"ъ":404,"ы":405,"ь":406,"э":407,"ю":408,"я":409,"ђ":410,"є":411,"і":412,"Ѷ":413,"ҥ":414,"ү":415,"Ҹ":416,"ә":417,"ө":418,"ֶ":419,"׀":420,"א":421,"ב":422,"ג":423,"ד":424,"ה":425,"ו":426,"י":427,"כ":428,"ל":429,"ם":430,"מ":431,"ן":432,"נ":433,"ס":434,"ע":435,"פ":436,"ק":437,"ר":438,"ש":439,"ת":440,"ء":441,"آ":442,"أ":443,"ؤ":444,"ئ":445,"ا":446,"ب":447,"ة":448,"ت":449,"ث":450,"ج":451,"ح":452,"خ":453,"د":454,"ذ":455,"ر":456,"ز":457,"س":458,"ش":459,"ص":460,"ض":461,"ط":462,"ظ":463,"ع":464,"غ":465,"ف":466,"ق":467,"ك":468,"ل":469,"م":470,"ن":471,"ه":472,"و":473,"ي":474,"ٌ":475,"َ":476,"ُ":477,"ِ":478,"ّ":479,"ْ":480,"ٔ":481,"٠":482,"١":483,"٢":484,"٣":485,"٤":486,"٥":487,"٦":488,"٧":489,"٨":490,"٩":491,"ٲ":492,"ٵ":493,"ٹ":494,"پ":495,"چ":496,"ڈ":497,"ژ":498,"ڹ":499,"ہ":500,"ے":501,"ܲ":502,"ݸ":503,"ތ":504,"ߓ":505,"ߘ":506,"ं":507,"ग":508,"ज":509,"त":510,"द":511,"न":512,"प":513,"ब":514,"य":515,"र":516,"स":517,"ह":518,"ा":519,"ि":520,"ी":521,"ु":522,"ू":523,"ो":524,"्":525,"਍":526,"ਕ":527,"ਜ":528,"ਪ":529,"ਬ":530,"ਰ":531,"਼":532,"ਾ":533,"ੀ":534,"੍":535,"ੰ":536,"க":537,"ഀ":538,"ാ":539,"ค":540,"เ":541,"๓":542,"Ⴈ":543,"ᎀ":544,"᠄":545,"ᴶ":546,"ᵗ":547,"ḥ":548,"ḿ":549,"ả":550,"ể":551,"ỉ":552,"​":553,"‌":554,"‍":555,"‎":556,"‏":557,"‐":558,"‑":559,"–":560,"—":561,"‘":562,"’":563,"‚":564,"“":565,"”":566,"„":567,"†":568,"‡":569,"•":570,"…":571,"‰":572,"′":573,"″":574,"‹":575,"›":576,"※":577,"⁞":578,"⁥":579,"⁬":580,"⁲":581,"₡":582,"₤":583,"₫":584,"€":585,"₴":586,"℃":587,"ℓ":588,"№":589,"™":590,"⅕":591,"←":592,"↑":593,"→":594,"↓":595,"↔":596,"↦":597,"↵":598,"⇐":599,"⇒":600,"⇥":601,"∀":602,"∂":603,"∃":604,"∅":605,"∆":606,"∈":607,"∉":608,"∑":609,"−":610,"∘":611,"√":612,"∞":613,"∧":614,"∨":615,"∩":616,"∪":617,"∫":618,"≅":619,"≈":620,"≠":621,"≡":622,"≤":623,"≥":624,"≪":625,"⊂":626,"⊃":627,"⊆":628,"⊇":629,"⊗":630,"⋱":631,"⌘":632,"⎕":633,"⎡":634,"⎢":635,"⎣":636,"⎤":637,"⎦":638,"␁":639,"␂":640,"␃":641,"④":642,"⓶":643,"─":644,"│":645,"┌":646,"┐":647,"└":648,"┘":649,"├":650,"┤":651,"┬":652,"┴":653,"┼":654,"═":655,"║":656,"╔":657,"╗":658,"╚":659,"╝":660,"╟":661,"╠":662,"╢":663,"╣":664,"╤":665,"╦":666,"╧":667,"╩":668,"╬":669,"▀":670,"▄":671,"█":672,"▌":673,"░":674,"▒":675,"▓":676,"■":677,"□":678,"▪":679,"▲":680,"►":681,"▼":682,"◄":683,"○":684,"●":685,"☀":686,"☃":687,"★":688,"☆":689,"☜":690,"☠":691,"☣":692,"☺":693,"☻":694,"♀":695,"♠":696,"♣":697,"♥":698,"♦":699,"♪":700,"♫":701,"♯":702,"✉":703,"✍":704,"✓":705,"✔":706,"✗":707,"✘":708,"❤":709,"➡":710,"⟨":711,"⟩":712,"⤥":713,"⤦":714,"⨯":715,"ⴷ":716,"ⴸ":717,"⸀":718,"⹥":719,"⼼":720,"⽰":721,"⽲":722,"⽳":723,"⾅":724,"、":725,"。":726,"「":727,"」":728,"〮":729,"〰":730,"〱":731,"〲":732,"あ":733,"が":734,"く":735,"け":736,"こ":737,"し":738,"じ":739,"す":740,"せ":741,"そ":742,"た":743,"ち":744,"つ":745,"て":746,"と":747,"な":748,"に":749,"の":750,"は":751,"ひ":752,"へ":753,"べ":754,"ま":755,"み":756,"や":757,"よ":758,"ら":759,"る":760,"れ":761,"ろ":762,"を":763,"ん":764,"イ":765,"カ":766,"ガ":767,"キ":768,"ギ":769,"ク":770,"ケ":771,"コ":772,"ゴ":773,"シ":774,"ジ":775,"ス":776,"ズ":777,"セ":778,"ソ":779,"タ":780,"ダ":781,"チ":782,"ッ":783,"テ":784,"ト":785,"ド":786,"ナ":787,"ノ":788,"ヒ":789,"ピ":790,"フ":791,"ブ":792,"ペ":793,"ボ":794,"マ":795,"メ":796,"ャ":797,"ュ":798,"ユ":799,"ラ":800,"ル":801,"ン":802,"・":803,"ー":804,"ㄢ":805,"㈰":806,"㈶":807,"㉌":808,"㌱":809,"㍃":810,"㕅":811,"㠭":812,"㠵":813,"㡂":814,"㤰":815,"㤱":816,"㤴":817,"㨵":818,"㨼":819,"㰠":820,"㱤":821,"㱥":822,"㱬":823,"㵮":824,"㸿":825,"㹥":826,"㹮":827,"㺛":828,"㼼":829,"䄀":830,"䄯":831,"䄼":832,"䌭":833,"䌯":834,"䍁":835,"䐳":836,"䐴":837,"䑹":838,"䔼":839,"䙁":840,"䙂":841,"䙃":842,"䙍":843,"䨾":844,"䰯":845,"䴯":846,"䴼":847,"䵐":848,"䵥":849,"一":850,"七":851,"三":852,"世":853,"业":854,"丠":855,"中":856,"串":857,"义":858,"九":859,"乥":860,"乮":861,"乴":862,"二":863,"五":864,"交":865,"人":866,"仔":867,"会":868,"位":869,"体":870,"你":871,"例":872,"偒":873,"傷":874,"優":875,"元":876,"先":877,"克":878,"全":879,"凲":880,"到":881,"功":882,"加":883,"动":884,"動":885,"匠":886,"区":887,"十":888,"千":889,"反":890,"受":891,"合":892,"名":893,"吸":894,"呥":895,"周":896,"呼":897,"和":898,"回":899,"国":900,"图":901,"圍":902,"在":903,"坛":904,"域":905,"報":906,"士":907,"売":908,"奥":909,"好":910,"字":911,"学":912,"定":913,"客":914,"对":915,"對":916,"已":917,"巴":918,"市":919,"帛":920,"平":921,"庫":922,"录":923,"形":924,"影":925,"彼":926,"性":927,"情":928,"意":929,"慄":930,"慌":931,"慍":932,"慎":933,"慣":934,"慬":935,"慲":936,"慳":937,"成":938,"我":939,"所":940,"扩":941,"拉":942,"拼":943,"挮":944,"捡":945,"捥":946,"捯":947,"接":948,"換":949,"摤":950,"攀":951,"敍":952,"敧":953,"敬":954,"敭":955,"敮":956,"数":957,"敲":958,"整":959,"敶":960,"文":961,"新":962,"日":963,"星":964,"晡":965,"曜":966,"書":967,"有":968,"期":969,"本":970,"条":971,"杮":972,"构":973,"栀":974,"桐":975,"桔":976,"档":977,"棋":978,"椀":979,"椯":980,"楆":981,"楍":982,"楓":983,"楔":984,"楨":985,"楬":986,"楲":987,"楴":988,"機":989,"歓":990,"氀":991,"污":992,"汬":993,"汮":994,"汯":995,"汰":996,"汵":997,"流":998,"测":999,"浡":1000,"浩":1001,"海":1002,"浸":1003,"渀":1004,"測":1005,"港":1006,"湅":1007,"湉":1008,"湡":1009,"湩":1010,"湯":1011,"漀":1012,"潃":1013,"潩":1014,"潰":1015,"潲":1016,"潴":1017,"澳":1018,"濏":1019,"濫":1020,"灡":1021,"灰":1022,"灵":1023,"煉":1024,"爀":1025,"片":1026,"牛":1027,"牥":1028,"牴":1029,"狐":1030,"猾":1031,"獕":1032,"獥":1033,"獲":1034,"獳":1035,"率":1036,"琀":1037,"琾":1038,"瑓":1039,"瑡":1040,"瑣":1041,"瑮":1042,"瑲":1043,"瑳":1044,"生":1045,"用":1046,"甲":1047,"申":1048,"畄":1049,"界":1050,"畓":1051,"畭":1052,"病":1053,"百":1054,"的":1055,"目":1056,"知":1057,"砜":1058,"破":1059,"确":1060,"磦":1061,"祡":1062,"祲":1063,"私":1064,"移":1065,"積":1066,"站":1067,"符":1068,"算":1069,"精":1070,"繁":1071,"结":1072,"网":1073,"罗":1074,"習":1075,"翻":1076,"自":1077,"舖":1078,"英":1079,"蒠":1080,"蓄":1081,"蠀":1082,"行":1083,"術":1084,"衝":1085,"見":1086,"角":1087,"計":1088,"訳":1089,"試":1090,"語":1091,"請":1092,"識":1093,"论":1094,"诊":1095,"试":1096,"误":1097,"象":1098,"販":1099,"転":1100,"込":1101,"迎":1102,"追":1103,"部":1104,"酒":1105,"金":1106,"错":1107,"門":1108,"関":1109,"闻":1110,"阜":1111,"阻":1112,"阿":1113,"陀":1114,"附":1115,"陆":1116,"陳":1117,"響":1118,"順":1119,"页":1120,"食":1121,"首":1122,"馳":1123,"駁":1124,"驕":1125,"马":1126,"验":1127,"鯨":1128,"鷠":1129,"ꁻ":1130,"골":1131,"국":1132,"대":1133,"드":1134,"로":1135,"마":1136,"번":1137,"복":1138,"상":1139,"소":1140,"안":1141,"약":1142,"양":1143,"어":1144,"의":1145,"이":1146,"중":1147,"체":1148,"초":1149,"표":1150,"할":1151,"현":1152,"회":1153,"":1154,"":1155,"ﬁ":1156,"ﬂ":1157,"ﺃ":1158,"ﻮ":1159,"﻿":1160,"！":1161,"＃":1162,"（":1163,"）":1164,"，":1165,"０":1166,"１":1167,"２":1168,"３":1169,"４":1170,"５":1171,"６":1172,"７":1173,"８":1174,"９":1175,"：":1176,"＝":1177,"？":1178,"Ｍ":1179,"Ｐ":1180,"Ｓ":1181,"ｃ":1182,"ｈ":1183,"｢":1184,"ｭ":1185,"ｯ":1186,"ｱ":1187,"ｳ":1188,"ｵ":1189,"ｷ":1190,"ｺ":1191,"ｻ":1192,"ｼ":1193,"ｽ":1194,"ｾ":1195,"ｿ":1196,"ﾂ":1197,"ﾅ":1198,"ﾆ":1199,"ﾈ":1200,"ﾉ":1201,"ﾊ":1202,"ﾌ":1203,"ﾍ":1204,"ﾎ":1205,"ﾏ":1206,"ﾑ":1207,"ﾛ":1208,"￺":1209,"�":1210,"th":1211,"in":1212,"er":1213,"on":1214,"at":1215,"an":1216,"re":1217,"the":1218,"to":1219,"le":1220,"ing":1221,"or":1222,"is":1223,"en":1224,"es":1225,"al":1226,"it":1227,"se":1228,"ro":1229,"ion":1230,"st":1231,"ou":1232,"ed":1233,"ar":1234,"me":1235,"ic":1236,"ct":1237,"as":1238,"and":1239,"ow":1240,"de":1241,"ve":1242,"ent":1243,"of":1244,"co":1245,"ch":1246,"ge":1247,"ut":1248,"for":1249,"be":1250,"ad":1251,"ab":1252,"ly":1253,"wh":1254,"lo":1255,"so":1256,"ex":1257,"ld":1258,"that":1259,"us":1260,"mp":1261,"wi":1262,"ce":1263,"un":1264,"ll":1265,"ate":1266,"ver":1267,"ha":1268,"fi":1269,"this":1270,"do":1271,"pro":1272,"ne":1273,"ay":1274,"--":1275,"tr":1276,"con":1277,"li":1278,"ot":1279,"ation":1280,"ap":1281,"ke":1282,"Th":1283,"if":1284,"am":1285,"with":1286,"ere":1287,");":1288,"ter":1289,"id":1290,"ma":1291,"have":1292,"est":1293,"ur":1294,"ame":1295,"pl":1296,"su":1297,"ect":1298,"qu":1299,"ac":1300,"but":1301,"00":1302,"able":1303,"my":1304,"ould":1305,"ment":1306,"em":1307,"all":1308,"ction":1309,"si":1310,"can":1311,"not":1312,"ri":1313,"wor":1314,"ser":1315,"..":1316,"are":1317,"cl":1318,"use":1319,"pe":1320,"out":1321,"pt":1322,"get":1323,"ess":1324,"one":1325,"per":1326,"po":1327,"ind":1328,"ass":1329,"some":1330,"ject":1331,"il":1332,"any":1333,"od":1334,"nt":1335,"rom":1336,"file":1337,"dat":1338,"ht":1339,"we":1340,"et":1341,"work":1342,"int":1343,"ie":1344,"age":1345,"ti":1346,"ist":1347,"fo":1348,"from":1349,"ase":1350,"up":1351,"ext":1352,"ul":1353,"str":1354,"mple":1355,"using":1356,"av":1357,"sh":1358,"ant":1359,"In":1360,"----":1361,"ble":1362,"ther":1363,"mo":1364,"like":1365,"end":1366,"ty":1367,"res":1368,"there":1369,"//":1370,"ig":1371,"ag":1372,"ue":1373,"Wh":1374,"Con":1375,"cont":1376,"How":1377,"way":1378,"code":1379,"um":1380,"()":1381,"ine":1382,"The":1383,"our":1384,"set":1385,"com":1386,"el":1387,"ort":1388,"val":1389,"ally":1390,"new":1391,"form":1392,"thing":1393,"ication":1394,"ob":1395,"ub":1396,"would":1397,"ite":1398,"ach":1399,"cre":1400,"Co":1401,"ers":1402,"ec":1403,"art":1404,"class":1405,"how":1406,"ich":1407,"ks":1408,"iew":1409,"now":1410,"bo":1411,"fer":1412,"te":1413,"di":1414,"act":1415,"want":1416,").":1417,"tor":1418,"nd":1419,"you":1420,"ack":1421,"read":1422,"when":1423,"ain":1424,"cess":1425,"which":1426,"plication":1427,"data":1428,"ile":1429,"unction":1430,"Is":1431,"ret":1432,"Re":1433,"other":1434,"by":1435,"urn":1436,"lic":1437,"add":1438,"ust":1439,"need":1440,"ror":1441,"ava":1442,"ice":1443,"app":1444,"function":1445,"go":1446,"ok":1447,"gr":1448,"ption":1449,"quest":1450,"wr":1451,"fa":1452,"der":1453,"ated":1454,"user":1455,"Pro":1456,"does":1457,"cri":1458,"what":1459,"Cont":1460,"vi":1461,"comp":1462,"bu":1463,"application":1464,"ure":1465,"St":1466,"no":1467,"ity":1468,"(\"":1469,"Ex":1470,"op":1471,"know":1472,"return":1473,"thod":1474,"has":1475,"run":1476,"try":1477,"yst":1478,"var":1479,"name":1480,"string":1481,"object":1482,"put":1483,"row":1484,"time":1485,"...":1486,"will":1487,"loc":1488,"ystem":1489,"pp":1490,"ive":1491,"indow":1492,"web":1493,"rec":1494,"ever":1495,"vent":1496,"ery":1497,"iz":1498,"ber":1499,"Dat":1500,"ublic":1501,"It":1502,"();":1503,"sion":1504,"My":1505,"200":1506,"What":1507,"error":1508,"blem":1509,"inst":1510,"table":1511,"load":1512,"just":1513,"ang":1514,"\",":1515,"Ser":1516,"par":1517,"So":1518,"cur":1519,"im":1520,"col":1521,"For":1522,"public":1523,"ting":1524,"Str":1525,"cript":1526,"rol":1527,"problem":1528,"method":1529,"ample":1530,"==":1531,"ild":1532,"tri":1533,"ml":1534,"page":1535,"Data":1536,"ET":1537,"inter":1538,"dis":1539,"ink":1540,"ans":1541,"server":1542,"ca":1543,"text":1544,"list":1545,"ary":1546,"ir":1547,"ght":1548,"ID":1549,"tom":1550,"tp":1551,"vice":1552,"QL":1553,"--------":1554,"pos":1555,"only":1556,"log":1557,"pr":1558,"ance":1559,"pa":1560,"SQL":1561,"into":1562,"test":1563,"ol":1564,"was":1565,"Do":1566,"ard":1567,"value":1568,"An":1569,"We":1570,"own":1571,"String":1572,"date":1573,"iv":1574,"call":1575,"This":1576,"llow":1577,"red":1578,"then":1579,"should":1580,"where":1581,"ial":1582,"View":1583,"IN":1584,"he":1585,"ener":1586,"view":1587,"lect":1588,"=\"":1589,"ument":1590,"mage":1591,"type":1592,"Name":1593,"ho":1594,"ource":1595,"follow":1596,"ult":1597,"back":1598,"ems":1599,"comm":1600,"anks":1601,"num":1602,"ong":1603,"abase":1604,"dif":1605,"line":1606,"Lo":1607,"play":1608,"something":1609,"gh":1610,"sol":1611,"ray":1612,"gram":1613,"ER":1614,"sing":1615,"If":1616,"example":1617,"**":1618,"don":1619,"ML":1620,"rect":1621,"fig":1622,"lib":1623,"AS":1624,"ick":1625,"und":1626,"ual":1627,"about":1628,"project":1629,"vo":1630,"List":1631,"roll":1632,"To":1633,"ff":1634,"rent":1635,"ra":1636,"System":1637,"look":1638,"ence":1639,"ull":1640,"But":1641,"fe":1642,"ide":1643,"create":1644,"ange":1645,"tw":1646,"port":1647,"find":1648,"same":1649,"tory":1650,"led":1651,"make":1652,"ning":1653,"pec":1654,"ception":1655,"),":1656,"files":1657,"indows":1658,"NET":1659,"10":1660,"De":1661,"question":1662,"elp":1663,"database":1664,"As":1665,"Ad":1666,"ies":1667,"bet":1668,"Ob":1669,"differ":1670,"des":1671,"Thanks":1672,"uct":1673,"ss":1674,"ton":1675,"eck":1676,"lt":1677,"main":1678,"ound":1679,"trying":1680,"sible":1681,"lient":1682,"Ch":1683,"atch":1684,"ight":1685,"proper":1686,"key":1687,"its":1688,"ip":1689,"could":1690,"atic":1691,"over":1692,"more":1693,"ord":1694,"resu":1695,"Val":1696,"java":1697,"following":1698,"au":1699,"query":1700,"la":1701,"http":1702,"program":1703,"site":1704,"ount":1705,"cument":1706,"start":1707,"each":1708,"ous":1709,"del":1710,"sub":1711,"arch":1712,"Any":1713,"ition":1714,"control":1715,"them":1716,"fir":1717,"ql":1718,"ution":1719,"gener":1720,"def":1721,"net":1722,"used":1723,"low":1724,"',":1725,"lement":1726,"umn":1727,"nam":1728,"++":1729,"pre":1730,"ta":1731,"result":1732,"ustom":1733,"UI":1734,"spec":1735,"gg":1736,"fore":1737,"round":1738,"Qu":1739,"ill":1740,"ress":1741,"File":1742,"pri":1743,"ating":1744,"rame":1745,"py":1746,"sto":1747,"('":1748,"enc":1749,"help":1750,"they":1751,"works":1752,"gin":1753,"Get":1754,"essage":1755,"Object":1756,"Ty":1757,"char":1758,"possible":1759,"sel":1760,"imple":1761,"::":1762,"Java":1763,"ms":1764,"ven":1765,"hand":1766,"first":1767,"see":1768,"here":1769,"current":1770,"event":1771,"://":1772,"Mo":1773,"select":1774,"check":1775,"ple":1776,"Web":1777,"cor":1778,"->":1779,"eld":1780,"Text":1781,"field":1782,"also":1783,"LE":1784,"part":1785,"min":1786,"imp":1787,"cause":1788,"User":1789,"self":1790,"ph":1791,"dex":1792,"point":1793,"velo":1794,"void":1795,"ST":1796,"let":1797,"process":1798,"Windows":1799,"oo":1800,"Add":1801,"Ar":1802,"version":1803,"\");":1804,"Type":1805,"cal":1806,"write":1807,"two":1808,"man":1809,"doesn":1810,"different":1811,"word":1812,"image":1813,"Se":1814,"Id":1815,"vari":1816,"display":1817,"implement":1818,"Cl":1819,"rou":1820,"fter":1821,"side":1822,"Res":1823,"clu":1824,"ator":1825,"conne":1826,"base":1827,"build":1828,"anyone":1829,"temp":1830,"array":1831,"When":1832,"contain":1833,"ON":1834,"solution":1835,"Po":1836,"ww":1837,"ils":1838,"box":1839,"mod":1840,"];":1841,"exp":1842,"show":1843,"working":1844,"ages":1845,"ving":1846,"been":1847,"open":1848,"document":1849,"script":1850,"ree":1851,"Can":1852,"every":1853,"sp":1854,"Server":1855,"Or":1856,"mem":1857,"siz":1858,"roller":1859,"12":1860,"ire":1861,"LL":1862,"Col":1863,"HT":1864,"change":1865,"Class":1866,"ep":1867,"cond":1868,"access":1869,"pass":1870,"ize":1871,"these":1872,"AT":1873,"fault":1874,"sed":1875,"ory":1876,"think":1877,"pon":1878,"column":1879,"client":1880,"tern":1881,"than":1882,"tried":1883,"number":1884,"develo":1885,"ace":1886,"down":1887,"ues":1888,"because":1889,"stand":1890,"ign":1891,"under":1892,"action":1893,"writ":1894,"UR":1895,"NS":1896,"))":1897,"very":1898,"Set":1899,"refer":1900,"another":1901,"seems":1902,"gn":1903,"inclu":1904,"content":1905,"ulti":1906,"without":1907,"lection":1908,"service":1909,"Query":1910,"print":1911,"best":1912,"config":1913,"ry":1914,"Un":1915,"ule":1916,"Event":1917,"ader":1918,"ASP":1919,"=>":1920,"reg":1921,"ash":1922,"sa":1923,"En":1924,"Bo":1925,"ream":1926,"chang":1927,"custom":1928,"RO":1929,"thon":1930,"dep":1931,"ameter":1932,"button":1933,"order":1934,"ask":1935,"right":1936,"size":1937,"sure":1938,"rough":1939,"ith":1940,"null":1941,"request":1942,"\";":1943,"($":1944,"tribut":1945,"requ":1946,"ax":1947,"thou":1948,"valid":1949,"ces":1950,"Exception":1951,"32":1952,"xml":1953,"system":1954,"exec":1955,"ically":1956,"etc":1957,"send":1958,"doing":1959,"simple":1960,"RE":1961,"ually":1962,"sql":1963,"SS":1964,"click":1965,"ations":1966,"good":1967,"search":1968,"lin":1969,"after":1970,"XML":1971,"through":1972,"ish":1973,"rary":1974,"post":1975,"else":1976,"ert":1977,"specif":1978,"mis":1979,"Value":1980,"element":1981,"Table":1982,"ates":1983,"count":1984,"arg":1985,"case":1986,"found":1987,"sof":1988,"However":1989,"variable":1990,"\")":1991,"SE":1992,"px":1993,"mit":1994,"vate":1995,"Control":1996,"__":1997,"correct":1998,"bit":1999,"org":2000,"0000":2001,"values":2002,"state":2003,"Form":2004,"sy":2005,"ache":2006,"ute":2007,"On":2008,"link":2009,"PH":2010,"option":2011,"IT":2012,"Vis":2013,"Com":2014,"looking":2015,"ck":2016,"ast":2017,"ful":2018,"thread":2019,"item":2020,"prod":2021,"top":2022,"running":2023,"ema":2024,"source":2025,"CT":2026,"Er":2027,"multi":2028,"uch":2029,"say":2030,"really":2031,"dio":2032,"path":2033,"ession":2034,"And":2035,"og":2036,"Ap":2037,"your":2038,"true":2039,"ron":2040,"11":2041,"being":2042,"while":2043,"static":2044,"Date":2045,"init":2046,"PHP":2047,"fine":2048,"tool":2049,"issu":2050,"php":2051,"ween":2052,"AP":2053,"By":2054,"command":2055,"sert":2056,"html":2057,"eas":2058,"tim":2059,"ctor":2060,"arent":2061,"message":2062,"db":2063,"sc":2064,"frame":2065,"won":2066,"inform":2067,"input":2068,"Does":2069,"struct":2070,"place":2071,"such":2072,"between":2073,"AR":2074,"sign":2075,"App":2076,"rid":2077,"ime":2078,"output":2079,"ccess":2080,"ict":2081,"before":2082,"rel":2083,"index":2084,"Here":2085,"exist":2086,"Item":2087,"20":2088,"----------------":2089,"Up":2090,"import":2091,"ler":2092,"even":2093,"URL":2094,"cle":2095,"may":2096,"long":2097,"Error":2098,"private":2099,"vert":2100,"lock":2101,"rectory":2102,"model":2103,"face":2104,"lang":2105,"develop":2106,"trans":2107,"ey":2108,"DB":2109,"IE":2110,"property":2111,"pres":2112,"mag":2113,"defin":2114,"100":2115,"comple":2116,"ak":2117,"udio":2118,"most":2119,"ng":2120,"ices":2121,"Comp":2122,"allow":2123,"emp":2124,"ead":2125,"tag":2126,"No":2127,"NU":2128,"ten":2129,"roup":2130,"still":2131,"better":2132,"ince":2133,"why":2134,"MS":2135,"pace":2136,"):":2137,"alse":2138,"objects":2139,"supp":2140,"Service":2141,"Test":2142,"ways":2143,"2008":2144,"map":2145,"ions":2146,"lease":2147,"Par":2148,"having":2149,"Image":2150,"respon":2151,"OR":2152,"Tr":2153,"many":2154,"ding":2155,"ready":2156,"vis":2157,"users":2158,"iter":2159,"move":2160,"late":2161,"default":2162,"Sub":2163,"Wr":2164,"cept":2165,"rowser":2166,"edi":2167,"Int":2168,"ative":2169,"parameter":2170,"ular":2171,"bug":2172,"local":2173,"giv":2174,"got":2175,"Key":2176,"second":2177,"window":2178,"ger":2179,"created":2180,"ggest":2181,"ref":2182,"At":2183,"HTML":2184,"\".":2185,"Net":2186,"ments":2187,"Me":2188,"exception":2189,"Time":2190,"Bu":2191,"Cre":2192,"lder":2193,"ider":2194,"format":2195,"ath":2196,"Not":2197,"_id":2198,"lot":2199,"ifi":2200,"mb":2201,"ket":2202,"mar":2203,"gu":2204,"perform":2205,"library":2206,"IS":2207,"Visual":2208,"wid":2209,"bar":2210,"information":2211,"Al":2212,"did":2213,"typ":2214,"based":2215,"host":2216,"Some":2217,"99":2218,"suggest":2219,"called":2220,"bl":2221,"both":2222,"====":2223,"0x":2224,"getting":2225,"ED":2226,"update":2227,"their":2228,"****":2229,"seem":2230,"answ":2231,"Ht":2232,"dit":2233,"much":2234,"ose":2235,"Context":2236,"record":2237,"Now":2238,"gre":2239,"done":2240,"ise":2241,"Box":2242,"clo":2243,"around":2244,"appro":2245,"instance":2246,"ield":2247,"url":2248,"connection":2249,"avas":2250,"Py":2251,"install":2252,"uses":2253,"avascript":2254,"lay":2255,"off":2256,"happ":2257,"well":2258,"direct":2259,"50":2260,"[]":2261,"ove":2262,"sim":2263,"Man":2264,"support":2265,"oks":2266,"Controller":2267,"include":2268,"icro":2269,"rows":2270,"les":2271,"raw":2272,"names":2273,"Proper":2274,"Array":2275,"2009":2276,"false":2277,"Source":2278,"sort":2279,"bin":2280,"pers":2281,"ft":2282,"].":2283,"multiple":2284,"setting":2285,"ason":2286,"NULL":2287,"ib":2288,"ify":2289,"ties":2290,"browser":2291,"ected":2292,"loy":2293,"onent":2294,"ved":2295,"fix":2296,"soft":2297,"AN":2298,"Model":2299,"kes":2300,"Script":2301,"With":2302,"instead":2303,"Code":2304,"30":2305,"vious":2306,"sw":2307,"ground":2308,"ody":2309,"Application":2310,"Request":2311,"io":2312,"VC":2313,"Au":2314,"within":2315,"quot":2316,"ced":2317,"oper":2318,"icrosoft":2319,"Conne":2320,"lip":2321,"leg":2322,"inding":2323,"ical":2324,"classes":2325,"ility":2326,"light":2327,"directory":2328,"single":2329,"stu":2330,"far":2331,"king":2332,"EN":2333,"ner":2334,"last":2335,"understand":2336,"cho":2337,"day":2338,"Python":2339,"Studio":2340,"wrong":2341,":\\":2342,"reason":2343,"Stream":2344,"ateg":2345,"cs":2346,"issue":2347,"Field":2348,"www":2349,"adv":2350,"sit":2351,"fin":2352,"imag":2353,"methods":2354,"again":2355,"Comm":2356,"reference":2357,"000":2358,"DE":2359,"Path":2360,"Ne":2361,"tribute":2362,"ializ":2363,"Hand":2364,"fl":2365,"happen":2366,"Edit":2367,"already":2368,"uby":2369,"langu":2370,"parent":2371,"memory":2372,"programm":2373,"CO":2374,"idea":2375,"que":2376,"had":2377,"semb":2378,"match":2379,"specific":2380,"uration":2381,"End":2382,"itle":2383,"since":2384,"16":2385,"pen":2386,"ideas":2387,"who":2388,"pear":2389,"via":2390,"vel":2391,"Message":2392,"enu":2393,"Why":2394,"TP":2395,"div":2396,"above":2397,"charact":2398,"Lin":2399,"sm":2400,"enter":2401,"ager":2402,"Inter":2403,"times":2404,"mach":2405,"NO":2406,"results":2407,"ell":2408,"There":2409,"sha":2410,"sty":2411,"bas":2412,"items":2413,"Sh":2414,"AL":2415,"report":2416,"wonder":2417,"hone":2418,"compile":2419,"vide":2420,"edit":2421,"design":2422,"Create":2423,"too":2424,"come":2425,"going":2426,"ynam":2427,"creen":2428,"LECT":2429,"width":2430,"insert":2431,"25":2432,"jQuery":2433,"SELECT":2434,"depend":2435,"Element":2436,"things":2437,"appear":2438,"Method":2439,"inside":2440,"Cur":2441,"Page":2442,"iber":2443,"Http":2444,"cannot":2445,"session":2446,"64":2447,"less":2448,"foo":2449,"Dis":2450,"ilar":2451,"group":2452,"ibern":2453,"looks":2454,"domain":2455,"avail":2456,"ither":2457,"ibernate":2458,"icate":2459,"might":2460,"Per":2461,"bel":2462,"bre":2463,"anything":2464,"connect":2465,"body":2466,"15":2467,"')":2468,"handle":2469,"keep":2470,"iated":2471,"atus":2472,"sch":2473,"those":2474,"atically":2475,"cert":2476,"ps":2477,"aph":2478,"Be":2479,"oc":2480,"copy":2481,"expl":2482,"tables":2483,"soc":2484,"though":2485,"below":2486,"ATE":2487,"plu":2488,"lat":2489,"writing":2490,"cons":2491,"Client":2492,"always":2493,"interface":2494,"images":2495,"Grid":2496,"['":2497,"ont":2498,"color":2499,"changes":2500,"eff":2501,"Property":2502,"ded":2503,"vices":2504,"similar":2505,"sum":2506,"Update":2507,"br":2508,"tell":2509,"ics":2510,"Frame":2511,"currently":2512,"folder":2513,"framework":2514,"Act":2515,"Sql":2516,"lete":2517,"Out":2518,"Des":2519,"ures":2520,"answer":2521,"controller":2522,"fil":2523,"rop":2524,"asp":2525,"address":2526,"anel":2527,"Button":2528,"present":2529,"store":2530,"const":2531,"real":2532,"peri":2533,"Connection":2534,"ient":2535,"gets":2536,"});":2537,"apprec":2538,"background":2539,"Open":2540,"Wor":2541,"40":2542,"Action":2543,"\").":2544,"thought":2545,"Are":2546,"cr":2547,"lish":2548,"MVC":2549,"convert":2550,"Thread":2551,"child":2552,"properties":2553,"AM":2554,"ix":2555,"defined":2556,"sole":2557,"DO":2558,"eng":2559,"oun":2560,"available":2561,"simp":2562,"ave":2563,"left":2564,"Info":2565,"few":2566,"ank":2567,"contains":2568,"stored":2569,"du":2570,"Phone":2571,"Num":2572,"Load":2573,"inte":2574,"someone":2575,"mon":2576,"All":2577,"??":2578,"tab":2579,"adding":2580,"Index":2581,"ired":2582,"take":2583,"great":2584,"ear":2585,"Microsoft":2586,"Line":2587,"must":2588,"figure":2589,"autom":2590,"Of":2591,"loop":2592,"dec":2593,"dll":2594,"creating":2595,"next":2596,"std":2597,"....":2598,"actually":2599,"added":2600,"fields":2601,"sembly":2602,"ffer":2603,"fac":2604,"ROM":2605,"New":2606,"ified":2607,"Custom":2608,"non":2609,"module":2610,"style":2611,"pack":2612,"product":2613,"website":2614,"API":2615,"Content":2616,"om":2617,"14":2618,"JS":2619,"pop":2620,"');":2621,"screen":2622,"lipse":2623,"machine":2624,"leng":2625,"ily":2626,"context":2627,"FROM":2628,"Row":2629,"ably":2630,"Select":2631,"flow":2632,"arget":2633,"State":2634,"Build":2635,"either":2636,"rend":2637,"windows":2638,"returns":2639,"Run":2640,"javascript":2641,"stru":2642,"password":2643,"save":2644,"remove":2645,"updat":2646,"igh":2647,"xx":2648,"ible":2649,"Base":2650,"ieve":2651,"lear":2652,"cel":2653,"plugin":2654,"loaded":2655,"length":2656,"],":2657,"jo":2658,"Result":2659,"UT":2660,"require":2661,"needs":2662,"approach":2663,"kind":2664,"));":2665,"mail":2666,"obj":2667,"13":2668,"Command":2669,"dynam":2670,"Current":2671,"arge":2672,"};":2673,"wondering":2674,"From":2675,"ails":2676,"ouse":2677,"PD":2678,"ences":2679,"give":2680,"ople":2681,"ling":2682,"response":2683,"complete":2684,"cap":2685,"feat":2686,"isn":2687,"ux":2688,"bers":2689,"email":2690,"pose":2691,"level":2692,"ted":2693,"EDIT":2694,"pages":2695,"Access":2696,"PO":2697,"posi":2698,"19":2699,"ote":2700,"missing":2701,"equ":2702,"compil":2703,"height":2704,"VS":2705,"head":2706,"break":2707,"Write":2708,"component":2709,"functions":2710,"orig":2711,"als":2712,"AB":2713,"tes":2714,"coding":2715,"().":2716,"lines":2717,"attern":2718,"separ":2719,"ross":2720,"Arg":2721,"WH":2722,"tract":2723,"Using":2724,"Manager":2725,"Inst":2726,"80":2727,"template":2728,"given":2729,"iPhone":2730,"2005":2731,"language":2732,"cat":2733,"produ":2734,")?":2735,"He":2736,"Ent":2737,"position":2738,"##":2739,"24":2740,"thent":2741,"orm":2742,"development":2743,"prov":2744,"auto":2745,"CF":2746,"info":2747,"ouble":2748,"written":2749,"origin":2750,"structure":2751,"advance":2752,"Read":2753,"ately":2754,"rather":2755,"Start":2756,"sever":2757,"tle":2758,"jax":2759,"ost":2760,"One":2761,"ush":2762,"']":2763,"standard":2764,"ression":2765,"easy":2766,"viron":2767,"Point":2768,"max":2769,"old":2770,"small":2771,"Mem":2772,"python":2773,"nc":2774,"large":2775,"den":2776,"ases":2777,"Trans":2778,"tx":2779,"alloc":2780,"havi":2781,"Rec":2782,"CH":2783,"header":2784,"execut":2785,"render":2786,"cell":2787,"cription":2788,"partic":2789,"title":2790,"mess":2791,"Map":2792,"ail":2793,"experi":2794,"filter":2795,"34":2796,"tori":2797,"IM":2798,"PF":2799,"types":2800,"book":2801,"Document":2802,"tal":2803,"certain":2804,"people":2805,"Project":2806,"iction":2807,"mat":2808,"@\"":2809,"several":2810,"member":2811,"projects":2812,"root":2813,"errors":2814,"OS":2815,"collection":2816,"VB":2817,"mean":2818,"pret":2819,"appreciated":2820,"01":2821,"Reg":2822,"block":2823,"selected":2824,"$(":2825,"entity":2826,"MySQL":2827,"exe":2828,"her":2829,"ERE":2830,"FF":2831,"generate":2832,"!=":2833,"elements":2834,"lex":2835,"IP":2836,"pository":2837,"login":2838,"everything":2839,"unt":2840,"js":2841,"throw":2842,"ities":2843,"ship":2844,"Di":2845,"stream":2846,"HTTP":2847,"decl":2848,"ension":2849,"Collection":2850,"<<":2851,"mysql":2852,"alled":2853,"itch":2854,"ster":2855,"performance":2856,"limit":2857,"*)":2858,"unch":2859,"however":2860,"ale":2861,"once":2862,"rece":2863,"whe":2864,"Process":2865,"high":2866,"options":2867,"close":2868,"ources":2869,"Log":2870,"ality":2871,"Win":2872,"Goo":2873,"location":2874,"18":2875,"stuff":2876,"please":2877,"columns":2878,"Goog":2879,"Xml":2880,"menu":2881,"ister":2882,"particular":2883,"Column":2884,"success":2885,"tual":2886,"((":2887,"applications":2888,"deploy":2889,"controls":2890,"delete":2891,"uring":2892,"WPF":2893,"lit":2894,"replace":2895,"rem":2896,"tra":2897,"ternal":2898,"aspx":2899,"byte":2900,"catch":2901,"made":2902,"Imp":2903,"lob":2904,"acle":2905,"calls":2906,"Also":2907,"ategory":2908,"Then":2909,"prefer":2910,"clear":2911,"vironment":2912,"Format":2913,"were":2914,"Pers":2915,"JavaScript":2916,"Handler":2917,"generated":2918,"NOT":2919,"xy":2920,"pract":2921,"ested":2922,"problems":2923,"loading":2924,"txt":2925,"INT":2926,"ulate":2927,"').":2928,"suggestions":2929,"Window":2930,"WHERE":2931,"AD":2932,"CE":2933,"17":2934,"pattern":2935,"statement":2936,"parameters":2937,"Number":2938,"goog":2939,"aw":2940,"never":2941,"SER":2942,"stack":2943,"CL":2944,"node":2945,"alog":2946,"proced":2947,"argument":2948,"[\"":2949,"execute":2950,"Size":2951,"hard":2952,"full":2953,"pointer":2954,"draw":2955,"bugg":2956,"Please":2957,"attribute":2958,"Hibernate":2959,"begin":2960,"Respon":2961,"Temp":2962,"tware":2963,"flo":2964,"deta":2965,"fully":2966,"Exec":2967,"lean":2968,"little":2969,"Foo":2970,"'.":2971,"installed":2972,"core":2973,"release":2974,"iled":2975,"Post":2976,"exact":2977,"';":2978,"att":2979,"Google":2980,"Entity":2981,"},":2982,"drop":2983,"lick":2984,"AND":2985,"22":2986,"unit":2987,"correctly":2988,"mode":2989,"voke":2990,"term":2991,"changed":2992,"Call":2993,"target":2994,"ized":2995,"Chang":2996,"jan":2997,"testing":2998,"ilt":2999,"Sha":3000,"Gener":3001,"bed":3002,"ictionary":3003,"ially":3004,"Ac":3005,"Default":3006,"La":3007,"Forms":3008,"mary":3009,"ION":3010,"big":3011,"rag":3012,"Count":3013,"ves":3014,"behavi":3015,"existing":3016,"IIS":3017,"EX":3018,"implementation":3019,"echo":3020,"Fl":3021,"task":3022,".)":3023,"double":3024,"oid":3025,"ys":3026,"ialize":3027,"free":3028,"aries":3029,"tools":3030,"section":3031,"setup":3032,"ique":3033,"graph":3034,"forms":3035,"Color":3036,"apping":3037,"occur":3038,"os":3039,"Fire":3040,"AX":3041,"SV":3042,"jango":3043,"step":3044,"Fir":3045,"whether":3046,"ake":3047,"solve":3048,"scroll":3049,"Le":3050,"*/":3051,"sample":3052,"status":3053,"built":3054,"Response":3055,"Bar":3056,"vir":3057,"ier":3058,"Config":3059,"md":3060,"ward":3061,"intern":3062,"gex":3063,"difference":3064,"norm":3065,"sen":3066,"variables":3067,"SD":3068,"assembly":3069,"First":3070,"param":3071,"war":3072,"Active":3073,"Pr":3074,"events":3075,"Dim":3076,"dri":3077,"gor":3078,"ntax":3079,"ait":3080,"Main":3081,"SO":3082,"mark":3083,"========":3084,"That":3085,"simply":3086,"CSS":3087,"inv":3088,"anch":3089,"Fac":3090,"m_":3091,"vlet":3092,"Where":3093,"abled":3094,"SP":3095,"switch":3096,"avoid":3097,"ently":3098,"aged":3099,"ken":3100,"plac":3101,"admin":3102,"Report":3103,"){":3104,"account":3105,"common":3106,"pretty":3107,"makes":3108,"calling":3109,"expression":3110,"cache":3111,"ough":3112,"sv":3113,"active":3114,"parse":3115,"Work":3116,"conf":3117,"fox":3118,"avig":3119,"strings":3120,"comes":3121,"LIN":3122,"rc":3123,"nothing":3124,"UN":3125,"opt":3126,"rand":3127,"characters":3128,"Mod":3129,"Valid":3130,"\":":3131,"seen":3132,"Hel":3133,"Binding":3134,"ES":3135,"Address":3136,"quite":3137,"Wid":3138,"retr":3139,"itself":3140,"known":3141,"mission":3142,"img":3143,"Fil":3144,"expected":3145,"join":3146,"ident":3147,"debug":3148,"ruby":3149,"Prod":3150,"ird":3151,"programming":3152,"$(\"":3153,"settings":3154,"configuration":3155,"Args":3156,"gorith":3157,"23":3158,"environment":3159,"board":3160,"CP":3161,"Check":3162,"layer":3163,"grid":3164,"());":3165,"ification":3166,"original":3167,"related":3168,"Click":3169,"tags":3170,"label":3171,"Node":3172,"cour":3173,"tests":3174,"Child":3175,"FI":3176,"sor":3177,"Ruby":3178,"Filter":3179,"shows":3180,"separate":3181,"prob":3182,"guess":3183,"********":3184,"automatically":3185,"Session":3186,"Lib":3187,"Fo":3188,"iness":3189,"username":3190,"consider":3191,"Program":3192,"records":3193,"Reader":3194,"medi":3195,"press":3196,"takes":3197,"Has":3198,">>":3199,"ns":3200,"anim":3201,"provide":3202,"tributes":3203,"Should":3204,"='":3205,"logg":3206,"structor":3207,"home":3208,"ency":3209,"reading":3210,"apache":3211,"accept":3212,"instan":3213,"documentation":3214,"effect":3215,"attemp":3216,"Bas":3217,"thinking":3218,"software":3219,"google":3220,"font":3221,"required":3222,"tech":3223,"Product":3224,"making":3225,"Items":3226,"27":3227,"turn":3228,"submit":3229,"empty":3230,":(":3231,"After":3232,"virtual":3233,"Oracle":3234,"comput":3235,"Panel":3236,"\"\"":3237,"tree":3238,"artic":3239,"didn":3240,"syntax":3241,"numer":3242,"prot":3243,"whole":3244,"ef":3245,"assign":3246,"person":3247,"job":3248,"LO":3249,"vs":3250,"basic":3251,"append":3252,"cus":3253,"usiness":3254,"functionality":3255,"started":3256,"ounter":3257,"define":3258,"Rails":3259,"buffer":3260,"Ro":3261,"links":3262,"enough":3263,"thor":3264,"viously":3265,"Framework":3266,"sive":3267,"WCF":3268,"namespace":3269,"hash":3270,"60":3271,"debugg":3272,"words":3273,"Input":3274,"COM":3275,"until":3276,"lu":3277,"messages":3278,"short":3279,"authent":3280,"dialog":3281,"Parameter":3282,"questions":3283,"_name":3284,"nice":3285,"dir":3286,"stract":3287,"she":3288,"bind":3289,"nel":3290,"ization":3291,"ames":3292,"itional":3293,"/*":3294,"ability":3295,"win":3296,"sn":3297,"sender":3298,"cation":3299,"(),":3300,"EventArgs":3301,"mer":3302,"course":3303,"character":3304,"space":3305,"redirect":3306,"legate":3307,"calc":3308,"ts":3309,"POST":3310,"remote":3311,"css":3312,"33":3313,"DI":3314,"AC":3315,"nb":3316,"ren":3317,"probably":3318,"lobal":3319,"Function":3320,"raries":3321,"Inte":3322,"year":3323,"appears":3324,"ived":3325,"directly":3326,"det":3327,"foreach":3328,"slow":3329,"float":3330,"least":3331,"Vers":3332,"You":3333,"ends":3334,"provid":3335,"comment":3336,"plit":3337,"$('":3338,"mouse":3339,"--------------------------------":3340,"fail":3341,"bot":3342,"spe":3343,"clipse":3344,"Prov":3345,"Person":3346,"maybe":3347,"yet":3348,"Linux":3349,"etch":3350,"ToString":3351,"binding":3352,"upload":3353,"Order":3354,"numbers":3355,"algorith":3356,"icient":3357,"Which":3358,"runs":3359,"posed":3360,"runtime":3361,"package":3362,"patch":3363,"secur":3364,"extension":3365,"Back":3366,"Emp":3367,"CON":3368,"eries":3369,"verlight":3370,"wrap":3371,"ender":3372,"E_":3373,"manage":3374,"entire":3375,"DLL":3376,"Eclipse":3377,"usr":3378,"actual":3379,"ru":3380,"Factory":3381,"rypt":3382,"logic":3383,"alert":3384,"args":3385,"pur":3386,"services":3387,"explain":3388,"itor":3389,"procedure":3390,"views":3391,"security":3392,"compiler":3393,"\\\\":3394,"feel":3395,"download":3396,"Init":3397,"CG":3398,"cc":3399,"points":3400,"GridView":3401,"cast":3402,"bad":3403,"Record":3404,"issues":3405,"across":3406,"examples":3407,"Search":3408,"nbsp":3409,"varchar":3410,"libraries":3411,"Excel":3412,"IO":3413,"sav":3414,"bytes":3415,"commend":3416,"thanks":3417,"Am":3418,"[[":3419,"stra":3420,"ared":3421,"inher":3422,"Boo":3423,"ential":3424,"internal":3425,"building":3426,"schema":3427,"ower":3428,"Contain":3429,"represent":3430,"returned":3431,"\",\"":3432,"constructor":3433,"Note":3434,"incre":3435,"quick":3436,"Group":3437,"repository":3438,"hid":3439,"ajax":3440,"':":3441,"28":3442,"happens":3443,"amp":3444,"png":3445,"gives":3446,"relation":3447,"Tool":3448,"55":3449,"rule":3450,"Console":3451,"trig":3452,"external":3453,"ee":3454,"df":3455,"bool":3456,"fort":3457,"termine":3458,"06":3459,"stop":3460,"contents":3461,"Linq":3462,"sites":3463,"len":3464,"random":3465,"\"]":3466,"uation":3467,"())":3468,"26":3469,"Ab":3470,"imal":3471,"pring":3472,"Setting":3473,"sheet":3474,"08":3475,"models":3476,"---":3477,"Cell":3478,"Sto":3479,"assoc":3480,"network":3481,"Unit":3482,"Down":3483,"resh":3484,"LINQ":3485,"Rem":3486,"entry":3487,"Option":3488,"plat":3489,"needed":3490,"DateTime":3491,"track":3492,"Version":3493,"GL":3494,"attach":3495,"his":3496,"socket":3497,"Provider":3498,"experience":3499,"normal":3500,"clean":3501,"register":3502,"sup":3503,"ride":3504,"container":3505,"resources":3506,"feature":3507,"diff":3508,"unique":3509,"console":3510,"bound":3511,"sume":3512,"expect":3513,"means":3514,"Thank":3515,"29":3516,"pi":3517,"recommend":3518,"jar":3519,"Label":3520,"Over":3521,"UPD":3522,"acc":3523,"queries":3524,"Firefox":3525,"+=":3526,"cook":3527,"company":3528,"specify":3529,"fails":3530,"56":3531,"properly":3532,"handler":3533,"Javascript":3534,"remo":3535,"exactly":3536,"Eng":3537,"warning":3538,"86":3539,"TR":3540,"unc":3541,"configure":3542,"Pri":3543,"range":3544,"necess":3545,"ia":3546,"termin":3547,"shared":3548,"hi":3549,"sequ":3550,"cale":3551,"Pre":3552,"Ref":3553,"rb":3554,"integr":3555,"OK":3556,"Clo":3557,"ses":3558,"altern":3559,"checked":3560,"ength":3561,"during":3562,"44":3563,"enum":3564,"s_":3565,"Length":3566,"past":3567,"manually":3568,"layout":3569,"Char":3570,"Ret":3571,"wait":3572,"branch":3573,"Database":3574,"Share":3575,"protected":3576,"Show":3577,"sent":3578,"||":3579,"behavior":3580,"&&":3581,"hind":3582,"++)":3583,"svn":3584,"determine":3585,"feed":3586,"repe":3587,"modify":3588,"Link":3589,"regex":3590,"XX":3591,"resource":3592,"engine":3593,"various":3594,"da":3595,"gl":3596,"Word":3597,"scen":3598,"transaction":3599,"dynamically":3600,"prevent":3601,"against":3602,"three":3603,"amount":3604,"share":3605,"embed":3606,"fire":3607,"validation":3608,"exists":3609,"Sec":3610,"keys":3611,"push":3612,"odes":3613,"\">":3614,"Pos":3615,"hel":3616,"09":3617,"Changed":3618,"Stack":3619,"Sty":3620,"fact":3621,"deal":3622,"flash":3623,"UPDATE":3624,"src":3625,"Det":3626,"generic":3627,"GET":3628,"displayed":3629,"panel":3630,"True":3631,"game":3632,"Attribute":3633,"area":3634,"achieve":3635,"Ho":3636,"operator":3637,"plicate":3638,"Customer":3639,"pas":3640,"dynamic":3641,".\"":3642,"Component":3643,"rl":3644,"jquery":3645,"managed":3646,"KE":3647,"US":3648,"git":3649,"ABLE":3650,"Output":3651,"nch":3652,"total":3653,"haven":3654,"pg":3655,"except":3656,"////":3657,"ario":3658,"contin":3659,"goes":3660,"wanted":3661,"condition":3662,"regular":3663,"Mode":3664,"complex":3665,"named":3666,"Sil":3667,"invoke":3668,"TH":3669,"Lay":3670,"T_":3671,"inner":3672,"fetch":3673,"gems":3674,"Let":3675,"maint":3676,"Controls":3677,"failed":3678,"learn":3679,"behind":3680,"Public":3681,"attributes":3682,"Pass":3683,"Files":3684,"SVN":3685,"cou":3686,"ters":3687,"03":3688,"05":3689,"Status":3690,"stor":3691,"vc":3692,"customer":3693,"cket":3694,"Could":3695,"says":3696,"Gr":3697,"detect":3698,"dd":3699,"developing":3700,"cmd":3701,"ones":3702,"master":3703,"rouble":3704,"navig":3705,"icks":3706,"references":3707,"commun":3708,"(){":3709,"ktop":3710,"Impl":3711,"Quest":3712,"vector":3713,"Perl":3714,"Example":3715,"XP":3716,"worked":3717,"/>":3718,"21":3719,"none":3720,"lies":3721,"Services":3722,"comments":3723,"sib":3724,"lector":3725,"blog":3726,"ln":3727,"month":3728,"rout":3729,"updated":3730,"nchron":3731,"07":3732,"bla":3733,"Mon":3734,"details":3735,"Mac":3736,"VM":3737,"force":3738,"threads":3739,"cover":3740,"interested":3741,"Menu":3742,"ane":3743,"Directory":3744,"Instance":3745,"useful":3746,"ires":3747,"JAX":3748,"PC":3749,"Auto":3750,"apps":3751,"?)":3752,"eclipse":3753,"final":3754,"Width":3755,"istr":3756,"regard":3757,"doc":3758,"04":3759,"seconds":3760,"Silverlight":3761,"ending":3762,"activ":3763,"tial":3764,"proto":3765,"Last":3766,"requests":3767,"cer":3768,"general":3769,"Users":3770,"algorithm":3771,"ivale":3772,"split":3773,"Cr":3774,"icon":3775,"tu":3776,"inherit":3777,"later":3778,"fill":3779,"signed":3780,"myself":3781,"previous":3782,"ious":3783,"Builder":3784,"device":3785,"Sy":3786,"Template":3787,"Return":3788,"passed":3789,"([":3790,"primary":3791,"OO":3792,"apply":3793,"Integer":3794,"hibernate":3795,"(!":3796,"video":3797,"starting":3798,"shell":3799,"category":3800,"Configuration":3801,"','":3802,"sets":3803,"business":3804,"commit":3805,"retrieve":3806,"ViewController":3807,"Save":3808,"fortun":3809,"integer":3810,"Rect":3811,"textbox":3812,"binary":3813,"ivalent":3814,"Tree":3815,"IF":3816,"Null":3817,"answers":3818,"Anyone":3819,"coming":3820,"dist":3821,"Dep":3822,"Sup":3823,"GUI":3824,"datab":3825,"Member":3826,"Problem":3827,"])":3828,"hoto":3829,"trouble":3830,"Off":3831,"basically":3832,"filename":3833,"Dictionary":3834,"easily":3835,"NHibernate":3836,"buttons":3837,"rails":3838,"LT":3839,"ialization":3840,"solutions":3841,"aff":3842,"Style":3843,"platform":3844,"pick":3845,"containing":3846,"situation":3847,"hidden":3848,"sd":3849,"follows":3850,"36":3851,"Mar":3852,"Db":3853,"Var":3854,"changing":3855,"Something":3856,"35":3857,"processing":3858,"boost":3859,"ause":3860,"operation":3861,":)":3862,"description":3863,"ublish":3864,"chan":3865,"Execute":3866,"AME":3867,"][":3868,"ds":3869,"Site":3870,"trigger":3871,"proxy":3872,"Django":3873,"checking":3874,"TABLE":3875,"equivalent":3876,"Tab":3877,"dbo":3878,"global":3879,"JSON":3880,"features":3881,"allows":3882,"_P":3883,"ORD":3884,"bottom":3885,"Since":3886,"Flex":3887,"orer":3888,"zip":3889,"gress":3890,"ista":3891,"TO":3892,"sec":3893,"pect":3894,"urity":3895,"Jo":3896,"dev":3897,"VER":3898,"37":3899,"Each":3900,"rele":3901,"definition":3902,"88":3903,"cp":3904,"sense":3905,"///":3906,"Oper":3907,"fast":3908,"scenario":3909,"anybody":3910,"drag":3911,";&":3912,"sk":3913,"].[":3914,"fortunately":3915,"Library":3916,"AG":3917,"cope":3918,"specified":3919,"speed":3920,"IC":3921,"editor":3922,"localhost":3923,"Right":3924,"exit":3925,"hide":3926,"tutori":3927,"hour":3928,"Sch":3929,"computer":3930,"efficient":3931,"safe":3932,"9999":3933,"gether":3934,"visual":3935,"hit":3936,"JO":3937,"mbo":3938,"visible":3939,"iate":3940,"flag":3941,"ING":3942,"world":3943,"necessary":3944,"IB":3945,"practice":3946,"1000":3947,"msg":3948,"umb":3949,"rection":3950,"!!":3951,"DataSource":3952,"Display":3953,"Sc":3954,"permission":3955,"servers":3956,"languages":3957,"Title":3958,"together":3959,"cach":3960,"tories":3961,"others":3962,"pped":3963,"override":3964,"asks":3965,"sometimes":3966,"author":3967,"Buffer":3968,"ixel":3969,"Security":3970,"SU":3971,"developer":3972,"SET":3973,"implemented":3974,"WriteLine":3975,"couple":3976,"ings":3977,"pression":3978,"Sa":3979,"hold":3980,"mapping":3981,"ker":3982,"Boolean":3983,"cases":3984,"aml":3985,"authentication":3986,"Bit":3987,"focus":3988,"Currently":3989,"Te":3990,"ives":3991,"Spec":3992,"Refer":3993,"39":3994,"mention":3995,"appropri":3996,"Writer":3997,"production":3998,"trace":3999,"Loader":4000,"TextBox":4001,"border":4002,"_t":4003,"Height":4004,"Find":4005,"Tag":4006,"$(\"#":4007,"cut":4008,"plan":4009,"article":4010,"looked":4011,"arguments":4012,"Servlet":4013,"haps":4014,"Expression":4015,"lie":4016,"IDE":4017,"2007":4018,"aging":4019,"team":4020,"eval":4021,"ENT":4022,"Flash":4023,"BY":4024,"scripts":4025,"versions":4026,"fri":4027,"nil":4028,"relative":4029,"Selected":4030,"days":4031,"Host":4032,"cy":4033,"accomp":4034,"maintain":4035,"delet":4036,"along":4037,"requires":4038,"persist":4039,"ese":4040,"cent":4041,"Make":4042,"due":4043,"Container":4044,"AJAX":4045,"queue":4046,"components":4047,"02":4048,"crash":4049,"export":4050,"Location":4051,"Apache":4052,"blah":4053,"ware":4054,"ended":4055,"assume":4056,"ifier":4057,"Basically":4058,"Su":4059,"Interface":4060,"igno":4061,"extract":4062,"accomplish":4063,"NSString":4064,"Engine":4065,"Delp":4066,"sun":4067,"Delphi":4068,"ature":4069,"aces":4070,"ls":4071,"direction":4072,"bt":4073,"choo":4074,"completely":4075,"CRE":4076,"yes":4077,"sound":4078,"Header":4079,"descri":4080,"capt":4081,"techn":4082,"wise":4083,"ries":4084,"important":4085,"Develo":4086,"IG":4087,"unk":4088,"FO":4089,"38":4090,"48":4091,"Hello":4092,"Gu":4093,"loads":4094,"special":4095,"Resource":4096,"####":4097,"Category":4098,"touch":4099,"mysql_":4100,"compiled":4101,"Settings":4102,"Parent":4103,"atever":4104,"fold":4105,"PL":4106,"Comple":4107,"Socket":4108,"perf":4109,"CC":4110,"Dial":4111,"Part":4112,"45":4113,"easier":4114,"somehow":4115,"overflow":4116,"Url":4117,"Draw":4118,"sli":4119,"apter":4120,"lists":4121,"PDF":4122,"ront":4123,"Vista":4124,"including":4125,"printf":4126,"relationship":4127,"imum":4128,"mac":4129,"validate":4130,"jpg":4131,"Listener":4132,"player":4133,"NAME":4134,"forward":4135,"contact":4136,"ben":4137,"ero":4138,"launch":4139,"She":4140,"Question":4141,"Next":4142,"ording":4143,"super":4144,"Dialog":4145,"Close":4146,"1_":4147,"SERT":4148,"31":4149,"Use":4150,"2003":4151,"card":4152,"coded":4153,"hope":4154,"77":4155,"ek":4156,"fixed":4157,"CR":4158,"optim":4159,"2000":4160,"MB":4161,"pie":4162,"Description":4163,"sur":4164,"undle":4165,"initial":4166,"somewhere":4167,"CHAR":4168,"finish":4169,"Tim":4170,"compare":4171,"Rout":4172,"VAL":4173,"snip":4174,":=":4175,"typed":4176,"extra":4177,"debugging":4178,"ME":4179,"Expl":4180,"partial":4181,"microsoft":4182,"shown":4183,"59":4184,"util":4185,"UE":4186,"Would":4187,"often":4188,"AA":4189,"outside":4190,"Insert":4191,"throws":4192,"belie":4193,"ade":4194,"enced":4195,"cookie":4196,"vers":4197,"margin":4198,"typeof":4199,"KEY":4200,"ico":4201,"Many":4202,"ump":4203,"ByVal":4204,"matter":4205,"JOIN":4206,"handling":4207,"whatever":4208,"Core":4209,"hop":4210,"suming":4211,"encoding":4212,"UIImage":4213,"''":4214,"dest":4215,"live":4216,"May":4217,"tic":4218,"possib":4219,":@\"":4220,"MP":4221,"­­":4222,"token":4223,"appropriate":4224,"Just":4225,"IL":4226,"Render":4227,"INSERT":4228,"delegate":4229,"constant":4230,"logging":4231,"ints":4232,"rest":4233,"Runtime":4234,"third":4235,"advice":4236,"Html":4237,"Assembly":4238,"pha":4239,"combin":4240,"Tw":4241,"icit":4242,"Every":4243,"Multi":4244,"ALL":4245,"STR":4246,"invol":4247,"xmlns":4248,"(.":4249,"additional":4250,"note":4251,"Domain":4252,"angle":4253,"party":4254,"entially":4255,"Module":4256,"encies":4257,"ili":4258,"recently":4259,"Param":4260,"Task":4261,"fair":4262,"execution":4263,"WS":4264,"mpt":4265,"clicked":4266,"symbo":4267,"FA":4268,"yy":4269,"00000000":4270,"dent":4271,"enable":4272,"Change":4273,"instances":4274,"showing":4275,"clients":4276,"came":4277,"believe":4278,":/":4279,"solute":4280,"Ajax":4281,"bunch":4282,"usage":4283,"igr":4284,"They":4285,"lates":4286,"refresh":4287,"ROR":4288,"receive":4289,"consist":4290,"successfully":4291,"Found":4292,"included":4293,"println":4294,"SharePoint":4295,"FILE":4296,"({":4297,"500":4298,"_T":4299,"apped":4300,"DOM":4301,"Best":4302,"perfect":4303,"tbl":4304,"\"/":4305,"+--------":4306,"faces":4307,"asking":4308,"json":4309,"creates":4310,"boxes":4311,"edia":4312,"car":4313,"statements":4314,"tmp":4315,"DD":4316,"aware":4317,"phone":4318,"asked":4319,"rix":4320,"dig":4321,"Copy":4322,"ERROR":4323,"displays":4324,"utable":4325,"Graph":4326,"vant":4327,"get_":4328,"Properties":4329,"calcul":4330,"Other":4331,"learning":4332,")]":4333,"getElement":4334,"MO":4335,"Admin":4336,"Zend":4337,"aster":4338,"aris":4339,"acks":4340,"PE":4341,"ibility":4342,"programmatically":4343,"attr":4344,"itect":4345,"notic":4346,"advant":4347,"DAT":4348,"obvious":4349,"Convert":4350,"pull":4351,"Sp":4352,"cpp":4353,"66":4354,"hack":4355,"parts":4356,"ater":4357,"roid":4358,"ialized":4359,"linux":4360,"\"\\":4361,"callback":4362,"declar":4363,"90":4364,"counter":4365,"nodes":4366,"passing":4367,"Mail":4368,"Enter":4369,"pes":4370,"pping":4371,"rules":4372,"abstract":4373,"updates":4374,"impro":4375,"ndar":4376,"Debug":4377,"fr":4378,"FS":4379,"compat":4380,"api":4381,"ync":4382,"Hash":4383,"Tra":4384,"desktop":4385,"rot":4386,"cursor":4387,"Memory":4388,"disable":4389,"snippe":4390,"iteria":4391,"vas":4392,"ulture":4393,"Port":4394,"happening":4395,"moment":4396,"actions":4397,"sl":4398,"pointers":4399,"icture":4400,"supposed":4401,"Cache":4402,"fam":4403,"mid":4404,"Drop":4405,"publish":4406,"django":4407,"acces":4408,"care":4409,"away":4410,"$('#":4411,"Login":4412,"padding":4413,"servlet":4414,"invalid":4415,"Simple":4416,"blank":4417,"Authent":4418,"starts":4419,"reports":4420,"provider":4421,"Names":4422,"online":4423,"Equ":4424,"rad":4425,"acket":4426,"ById":4427,"dr":4428,"ines":4429,"urther":4430,"wx":4431,"Int32":4432,"loyee":4433,"exceptions":4434,"49":4435,"Handle":4436,"UTF":4437,"explicit":4438,"Explorer":4439,"front":4440,"faster":4441,"Internet":4442,"developers":4443,"vb":4444,"Ptr":4445,"ense":4446,"UP":4447,"longer":4448,"entries":4449,"Repository":4450,"verse":4451,"modules":4452,"cout":4453,"implementing":4454,"headers":4455,"native":4456,"profile":4457,"clar":4458,"instanti":4459,"unsigned":4460,"Ext":4461,"pair":4462,"Stu":4463,"ategor":4464,"Layout":4465,"locks":4466,"zy":4467,"SDK":4468,"returning":4469,"chart":4470,"utes":4471,"usion":4472,"batch":4473,"ific":4474,"reader":4475,"Bitmap":4476,"Unfortunately":4477,"monitor":4478,"mind":4479,"anal":4480,"sending":4481,"Obj":4482,"alternative":4483,"57":4484,"LD":4485,"lots":4486,"noticed":4487,"allowed":4488,"ides":4489,"ordin":4490,"sys":4491,"Book":4492,"hoping":4493,"Unknown":4494,"searching":4495,"children":4496,"Store":4497,"tries":4498,"END":4499,"logged":4500,"Case":4501,"ingle":4502,"aren":4503,"photo":4504,"Entry":4505,"Ide":4506,"lied":4507,"Met":4508,"center":4509,"While":4510,"greatly":4511,"Fe":4512,"databases":4513,"relevant":4514,"ike":4515,"vie":4516,"Fin":4517,"Sort":4518,"Account":4519,"Send":4520,"CREATE":4521,"parser":4522,"Abstract":4523,"dt":4524,"Rewrite":4525,"ORM":4526,"construct":4527,"interest":4528,"nested":4529,"years":4530,"eg":4531,"plic":4532,"obviously":4533,"anyway":4534,"diffic":4535,"Password":4536,"absolute":4537,"timeout":4538,"concer":4539,"merge":4540,"executed":4541,"Ut":4542,"operations":4543,"PR":4544,"(&":4545,"HO":4546,"}\"":4547,"#?":4548,"causes":4549,"VAR":4550,"documents":4551,"dump":4552,"friend":4553,"Spring":4554,"processes":4555,"plugins":4556,"pixel":4557,"agr":4558,"params":4559,"Contact":4560,"ony":4561,"Delete":4562,"These":4563,"Go":4564,"recur":4565,"Options":4566,"cross":4567,"aa":4568,"understanding":4569,"Single":4570,"causing":4571,"Tok":4572,"commands":4573,"javax":4574,"choose":4575,"flex":4576,"finding":4577,"300":4578,"ised":4579,"dependencies":4580,"None":4581,"bro":4582,"TableView":4583,"fairly":4584,"_ID":4585,"inc":4586,"escap":4587,"ountry":4588,"OP":4589,"Will":4590,"reco":4591,"ivid":4592,"reasons":4593,"saved":4594,"ptor":4595,"products":4596,"embedded":4597,"solved":4598,"studio":4599,"rote":4600,"strict":4601,"46":4602,"deleted":4603,"Serializ":4604,"================":4605,"navigation":4606,"az":4607,"Invoke":4608,"Print":4609,"Only":4610,"coll":4611,"47":4612,"selection":4613,"firm":4614,"browsers":4615,"usually":4616,"Token":4617,"datetime":4618,"removed":4619,"aks":4620,"Tri":4621,"associated":4622,"gi":4623,"Bl":4624,"ata":4625,"actor":4626,"ViewModel":4627,"DataTable":4628,"Dec":4629,"modified":4630,"wrote":4631,"ki":4632,"pay":4633,"purpose":4634,"concept":4635,"INTO":4636,"Try":4637,"posts":4638,"...)":4639,"placed":4640,"AML":4641,"Contract":4642,"hu":4643,"ying":4644,"Local":4645,"ui":4646,"management":4647,"individ":4648,"correspon":4649,"said":4650,"perhaps":4651,"encrypt":4652,"\"\";":4653,"migr":4654,"shot":4655,"excel":4656,"pool":4657,"Objects":4658,"highlight":4659,"xaml":4660,"dictionary":4661,"vision":4662,"rectories":4663,"foreign":4664,"Empty":4665,"stri":4666,"Sol":4667,"numerable":4668,"thoughts":4669,"clicks":4670,"False":4671,"DA":4672,"scope":4673,"handled":4674,"ategories":4675,"entities":4676,"icode":4677,"Ag":4678,"son":4679,"attempt":4680,"uture":4681,"Transaction":4682,"according":4683,"transform":4684,"cf":4685,"ptr":4686,"Activ":4687,"entials":4688,"\"?":4689,"Target":4690,"enabled":4691,"_S":4692,"Que":4693,"upgr":4694,"Bind":4695,"align":4696,"PS":4697,"Master":4698,"123":4699,"inject":4700,"ection":4701,"rd":4702,"estamp":4703,"subject":4704,"animation":4705,"Font":4706,"systems":4707,"disk":4708,"secure":4709,"pdf":4710,"ceed":4711,"docs":4712,"GB":4713,"dont":4714,"keyboard":4715,"includes":4716,"vol":4717,"logs":4718,"Byte":4719,"Help":4720,"]);":4721,"popup":4722,"Email":4723,"boo":4724,"$.":4725,"78":4726,".*":4727,"PRO":4728,"practices":4729,"sequence":4730,"alt":4731,"Dynam":4732,"kill":4733,"to_":4734,"ided":4735,"ulator":4736,"Ms":4737,"mx":4738,"istry":4739,"SSL":4740,"choice":4741,"dle":4742,"supported":4743,"Max":4744,"ism":4745,"limited":4746,"Doc":4747,"Generic":4748,"schem":4749,"Qt":4750,"Delegate":4751,"latest":4752,"Rule":4753,"Reference":4754,"forum":4755,"terms":4756,"------":4757,"Anim":4758,"****************":4759,"members":4760,"uc":4761,"constra":4762,"Min":4763,"Values":4764,"declare":4765,"provided":4766,"progress":4767,"btn":4768,"minutes":4769,"____":4770,"dropdown":4771,"Mouse":4772,"getElementById":4773,"Invalid":4774,"Manage":4775,"Design":4776,"DataContext":4777,"Look":4778,"EC":4779,"zero":4780,"strange":4781,"depending":4782,"prise":4783,"69":4784,"tasks":4785,"folders":4786,"stat":4787,"ran":4788,"serve":4789,"roo":4790,"linked":4791,"Maybe":4792,"DN":4793,"#.":4794,"fit":4795,"ned":4796,"Encoding":4797,"ged":4798,"occurs":4799,"wrapper":4800,"acy":4801,"sched":4802,"Left":4803,"knows":4804,"JQuery":4805,"lets":4806,"factory":4807,"connections":4808,"recogn":4809,"specifically":4810,"Begin":4811,"places":4812,"dates":4813,"taking":4814,"itecture":4815,"Ori":4816,"CPU":4817,"manager":4818,"duplicate":4819,"permissions":4820,"\"];":4821,"Bytes":4822,"conver":4823,"BE":4824,"lookup":4825,"detail":4826,"ites":4827,"UserControl":4828,"timer":4829,"continue":4830,"Trace":4831,"initWith":4832,"produce":4833,"sus":4834,"storing":4835,"manip":4836,"ming":4837,"couldn":4838,"spring":4839,"ificate":4840,"ination":4841,"Scroll":4842,"Bean":4843,"Parameters":4844,"Operation":4845,"3D":4846,"tabs":4847,"aring":4848,"Stand":4849,"matches":4850,"Import":4851,"almost":4852,"plain":4853,"ignore":4854,"Sm":4855,"Top":4856,"SW":4857,"lead":4858,"undefined":4859,"Rows":4860,"ral":4861,"MyClass":4862,"met":4863,"XS":4864,"Power":4865,"xxx":4866,"kit":4867,"although":4868,"Browser":4869,"scan":4870,"ierarch":4871,"debugger":4872,"hor":4873,"programs":4874,"TE":4875,"leep":4876,"stuck":4877,"increment":4878,"WM":4879,"mock":4880,"Dri":4881,"thumb":4882,"selector":4883,"Basic":4884,"Proxy":4885,"installation":4886,"future":4887,"executable":4888,"piece":4889,"appreciate":4890,"unable":4891,"Win32":4892,"Sw":4893,"extends":4894,"75":4895,"ASC":4896,"parsing":4897,"ncy":4898,"rewrite":4899,"Ver":4900,"macro":4901,"arrays":4902,"Background":4903,"Range":4904,"groups":4905,"Connect":4906,"UID":4907,"hours":4908,"keyword":4909,"displaying":4910,"drive":4911,"Queue":4912,"region":4913,"snippet":4914,"repeat":4915,"directories":4916,"Dispatch":4917,"Register":4918,"Company":4919,"AV":4920,"schemas":4921,"calculate":4922,"bits":4923,"vy":4924,"mob":4925,"Rel":4926,"Team":4927,"Level":4928,"ision":4929,"clicking":4930,"255":4931,"behaviour":4932,"Helper":4933,"media":4934,"boolean":4935,"Pl":4936,"closed":4937,"{}":4938,"Private":4939,"gers":4940,"Giv":4941,"Adapter":4942,"protocol":4943,"belong":4944,"UITableView":4945,"ORDER":4946,":\"":4947,"endor":4948,"Im":4949,"Ok":4950,"Rece":4951,"straight":4952,"Vari":4953,"<=":4954,"asc":4955,"legant":4956,"Standard":4957,"remember":4958,"connected":4959,"popul":4960,"aving":4961,"Parser":4962,"weight":4963,"immedi":4964,"Install":4965,"CS":4966,"ADO":4967,"Native":4968,"rollers":4969,"ging":4970,"improve":4971,"further":4972,"capture":4973,"organ":4974,"rep":4975,"af":4976,"ins":4977,"../":4978,"reflect":4979,"Long":4980,"Combo":4981,"dim":4982,"Fa":4983,"beans":4984,"remain":4985,"\"))":4986,"#,":4987,"Nam":4988,"price":4989,"ze":4990,"})":4991,"conn":4992,"cir":4993,"mt":4994,"ring":4995,"moving":4996,"Once":4997,"Parse":4998,"_type":4999,"Car":5000,"IEnumerable":5001,"Imag":5002,"ListView":5003,"Block":5004,"iterator":5005,"distribut":5006,"G_":5007,"Root":5008,"conversion":5009,"Given":5010,"black":5011,"thrown":5012,"nolog":5013,"DataSet":5014,"workaround":5015,"tutorial":5016,"Management":5017,"wouldn":5018,"Du":5019,"Pop":5020,"gcc":5021,"Pa":5022,"lying":5023,";}":5024,"curious":5025,"deployment":5026,"FT":5027,"Ste":5028,"guys":5029,"Culture":5030,"struction":5031,"thus":5032,"mechan":5033,"ensive":5034,"Another":5035,"hover":5036,"hello":5037,"cost":5038,"steps":5039,"DBC":5040,"editing":5041,"finally":5042,"Job":5043,"2006":5044,"Second":5045,"Player":5046,"synchron":5047,"inline":5048,"week":5049,"Details":5050,"proc":5051,"rendering":5052,"XAML":5053,"lid":5054,"Exp":5055,"izont":5056,"wish":5057,"saying":5058,"IME":5059,"declared":5060,"adata":5061,"SOAP":5062,"benef":5063,"power":5064,"templates":5065,"ARY":5066,"Logg":5067,"received":5068,"pot":5069,"wel":5070,"disabled":5071,"codes":5072,"machines":5073,"designer":5074,"Graphics":5075,"abc":5076,"Chan":5077,"FC":5078,"resolve":5079,"dependent":5080,"retrie":5081,"mentioned":5082,"(@":5083,"aset":5084,"driver":5085,"picture":5086,"*.":5087,"executing":5088,"GIN":5089,"VARCHAR":5090,"Shell":5091,"Two":5092,"amb":5093,"comb":5094,"Office":5095,"RS":5096,"upon":5097,"expand":5098,"Remove":5099,"BU":5100,"timestamp":5101,"decimal":5102,"NT":5103,"func":5104,"hal":5105,"implements":5106,"assemb":5107,"EL":5108,"helpful":5109,"jor":5110,"my_":5111,"?>":5112,"Exten":5113,".,":5114,"65":5115,"individual":5116,"gt":5117,"icated":5118,"huge":5119,"scale":5120,"whenever":5121,"https":5122,"mill":5123,"backup":5124,"mobile":5125,"Authentication":5126,"tre":5127,"1234":5128,"sqlite":5129,"processor":5130,"tempor":5131,"Channel":5132,"hosting":5133,"ilities":5134,"elegant":5135,"DT":5136,"interfaces":5137,"lier":5138,"larg":5139,"route":5140,"widget":5141,":-":5142,"Timer":5143,"decided":5144,"perfectly":5145,"ws":5146,"checkbox":5147,"ene":5148,"Did":5149,"////////":5150,"unless":5151,"giving":5152,"ensure":5153,"ively":5154,"400":5155,"EXT":5156,"requirement":5157,"packages":5158,"updating":5159,"tested":5160,"difficult":5161,"listen":5162,"/.":5163,"evalu":5164,"(?":5165,"offer":5166,"books":5167,"poses":5168,"wards":5169,"populate":5170,"reach":5171,"requirements":5172,"Transform":5173,"become":5174,"DataGridView":5175,"NER":5176,"dependency":5177,"Like":5178,"iframe":5179,"Timeout":5180,"initialize":5181,"96":5182,"asy":5183,"-----":5184,"Tot":5185,"UIView":5186,"na":5187,"white":5188,"ART":5189,"articles":5190,"Invo":5191,"onto":5192,"More":5193,"writer":5194,"(@\"":5195,"tain":5196,"generates":5197,"Argument":5198,"MD":5199,"Full":5200,"Schema":5201,"ian":5202,"-->":5203,"REST":5204,"roovy":5205,"InputStream":5206,"middle":5207,"technolog":5208,"UD":5209,"Tom":5210,"World":5211,"Our":5212,"attempting":5213,"grab":5214,"Cap":5215,"interesting":5216,"Proto":5217,"EE":5218,"Async":5219,"_POST":5220,"sem":5221,"Objective":5222,"Wrap":5223,"VS2008":5224,"Validation":5225,"TCP":5226,"Visible":5227,"izing":5228,"Struct":5229,"'/":5230,"MA":5231,"fari":5232,"err":5233,"erc":5234,">=":5235,"coa":5236,"ystal":5237,"clude":5238,"gif":5239,"ecks":5240,"42":5241,"prep":5242,"\"));":5243,"complic":5244,"scr":5245,"sil":5246,"Br":5247,"espec":5248,"soon":5249,"arison":5250,"58":5251,"perl":5252,"\"),":5253,"period":5254,"confirm":5255,"subs":5256,"0f":5257,"EventHandler":5258,"{\"":5259,"today":5260,"reset":5261,"confused":5262,"endl":5263,"rome":5264,"ARE":5265,"putting":5266,"offset":5267,"Screen":5268,"encounter":5269,"ness":5270,"El":5271,"Requ":5272,"Yes":5273,"ago":5274,"sizeof":5275,"ActiveRecord":5276,"seeing":5277,"():":5278,"referenced":5279,"\")]":5280,"arr":5281,"webservice":5282,"tion":5283,"stay":5284,"mostly":5285,"Common":5286,"jsp":5287,"likely":5288,"ously":5289,"SC":5290,"-------":5291,"goal":5292,"Day":5293,"Columns":5294,"Msg":5295,"Extension":5296,"especially":5297,"weird":5298,"_data":5299,"Append":5300,"ledge":5301,"ComboBox":5302,"tips":5303,"Events":5304,"wants":5305,"Redi":5306,"clause":5307,">>>":5308,"differences":5309,"corresponding":5310,"INFO":5311,"++;":5312,"rupt":5313,"Depend":5314,"worth":5315,"fx":5316,"Total":5317,"S_":5318,"configured":5319,"major":5320,"internet":5321,"shouldn":5322,"Dynamic":5323,"ators":5324,"Redirect":5325,"3rd":5326,"anywhere":5327,"transfer":5328,"76":5329,"Most":5330,"Imple":5331,"hy":5332,"Conver":5333,"storage":5334,"Enum":5335,"serial":5336,"guide":5337,"MM":5338,"iliar":5339,"frameworks":5340,"alpha":5341,"fs":5342,"history":5343,"Say":5344,"hierarch":5345,"onym":5346,"Cook":5347,"Regex":5348,"luck":5349,"DATE":5350,"possibly":5351,"categories":5352,"ug":5353,"\":\"":5354,"provides":5355,"Flag":5356,"Develop":5357,"YES":5358,"accessing":5359,"generating":5360,"000000":5361,"equal":5362,"matrix":5363,"uts":5364,"Red":5365,"prior":5366,"Author":5367,"suppose":5368,"Ideally":5369,"lif":5370,"opening":5371,"Results":5372,"hook":5373,"\\\"":5374,"entered":5375,"VALU":5376,"verage":5377,"Submit":5378,"watch":5379,"Express":5380,"considered":5381,"l_":5382,"love":5383,"Perform":5384,"Ali":5385,"Bound":5386,"prompt":5387,"Clear":5388,"sync":5389,"Pool":5390,"opened":5391,"audio":5392,"quickly":5393,"resize":5394,"posted":5395,"SDL":5396,"lower":5397,",\"":5398,"tore":5399,"intro":5400,"brow":5401,"vendor":5402,"98":5403,"recent":5404,"explicitly":5405,"./":5406,"mod_":5407,"pc":5408,"swf":5409,"Vir":5410,"mut":5411,"discus":5412,"II":5413,"Bin":5414,"Mer":5415,"otherwise":5416,"trick":5417,"cred":5418,"oting":5419,"=\"{":5420,"WT":5421,"subclass":5422,"2D":5423,"GRO":5424,"_C":5425,"welcome":5426,"utf":5427,"annot":5428,"Even":5429,"MSDN":5430,"Position":5431,":[":5432,"SQLite":5433,"Pres":5434,"loader":5435,"Callback":5436,"spect":5437,"Vec":5438,"symbol":5439,"70":5440,"extend":5441,"paths":5442,"ali":5443,"checks":5444,"conditions":5445,"finished":5446,"ev":5447,"ied":5448,"strateg":5449,"cells":5450,"ude":5451,"Cannot":5452,"ulation":5453,"???":5454,"USER":5455,"agrid":5456,"boss":5457,"redu":5458,"WIN":5459,"Bec":5460,"_1":5461,"licy":5462,"href":5463,"Release":5464,"hn":5465,"installer":5466,"Cond":5467,"Employee":5468,"Mutable":5469,"Because":5470,"Folder":5471,"amer":5472,"oom":5473,"fun":5474,"Lock":5475,"pipe":5476,"assuming":5477,"ype":5478,"modal":5479,"helper":5480,"ather":5481,"arently":5482,"HttpContext":5483,"beginning":5484,"onymous":5485,"Have":5486,"creation":5487,"architecture":5488,"Nothing":5489,"playing":5490,"VALUES":5491,"istration":5492,"43":5493,"bundle":5494,"Guid":5495,"immediately":5496,"regarding":5497,"cached":5498,"IE7":5499,"IX":5500,"Enabled":5501,"transl":5502,"procedures":5503,"fade":5504,"bash":5505,"lost":5506,"Named":5507,"knowledge":5508,"occurred":5509,"DS":5510,"compatible":5511,"Apple":5512,"_B":5513,"formatting":5514,"meas":5515,"matching":5516,"invok":5517,"affect":5518,"<?":5519,"Internal":5520,"dbc":5521,"DATA":5522,"Business":5523,"GO":5524,"Mat":5525,"datat":5526,"Documents":5527,"topic":5528,"Worker":5529,"integration":5530,"assigned":5531,"iest":5532,"taken":5533,"familiar":5534,"=$":5535,"paste":5536,"developed":5537,"blue":5538,"LI":5539,"patterns":5540,"coordin":5541,"complicated":5542,"arp":5543,"notification":5544,"near":5545,"Need":5546,"compiling":5547,"cing":5548,"mix":5549,"workflow":5550,"ListBox":5551,"Before":5552,"escape":5553,"Func":5554,"prec":5555,"leave":5556,"becomes":5557,"TextField":5558,"hosted":5559,"half":5560,"ges":5561,"URLs":5562,"certificate":5563,"ditor":5564,"Math":5565,"backs":5566,"c_":5567,"installing":5568,"Virtual":5569,"JSP":5570,"FileName":5571,"Sum":5572,"Che":5573,"untu":5574,"inserted":5575,"mm":5576,"assert":5577,"suggested":5578,"role":5579,"rs":5580,"MY":5581,"[$":5582,"seg":5583,"foot":5584,"Sim":5585,"dy":5586,"Media":5587,"notice":5588,"rendered":5589,"Initialize":5590,"iphone":5591,"ArrayList":5592,"Body":5593,"serv":5594,"collect":5595,"Both":5596,"req":5597,"rency":5598,"blocks":5599,"ift":5600,"auth":5601,"ANS":5602,"bean":5603,"itter":5604,"everyone":5605,"bitmap":5606,"occ":5607,"saving":5608,"fied":5609,"tran":5610,"retain":5611,"radio":5612,"Ant":5613,"iterate":5614,"pied":5615,"izontal":5616,"Cal":5617,"Unable":5618,"Accept":5619,"four":5620,"coder":5621,"DropDown":5622,"uster":5623,"Complete":5624,"Meta":5625,"caching":5626,"Replace":5627,"assemblies":5628,"Rad":5629,"anced":5630,"DataGrid":5631,"span":5632,"customers":5633,"Double":5634,"PK":5635,"strong":5636,"obtain":5637,"ATH":5638,"ADD":5639,"transparent":5640,"Types":5641,"ggle":5642,"IntPtr":5643,"declaration":5644,"Global":5645,"MT":5646,"frequ":5647,"expressions":5648,"Variable":5649,"War":5650,"AF":5651,"Dir":5652,"alle":5653,"Home":5654,"Route":5655,"activity":5656,"Compil":5657,"41":5658,"Mob":5659,"Non":5660,"Profile":5661,"legacy":5662,"registry":5663,"MAX":5664,"fall":5665,"0px":5666,"_F":5667,"Attributes":5668,"dc":5669,"lers":5670,"tutorials":5671,"Wait":5672,"NE":5673,"plus":5674,"ryption":5675,"Widget":5676,"sorted":5677,"dimension":5678,"IR":5679,"scal":5680,"supports":5681,"Permission":5682,"Safari":5683,"Lang":5684,"hex":5685,"dataset":5686,"respect":5687,"twice":5688,"Obviously":5689,"iny":5690,"determin":5691,"NSLog":5692,"indic":5693,"agno":5694,"UNT":5695,"***":5696,"graphics":5697,"]+":5698,"Getting":5699,"located":5700,"enumer":5701,"derived":5702,"mechanism":5703,"52":5704,"Cred":5705,"trunk":5706,"Persist":5707,"IE6":5708,"NG":5709,"meaning":5710,"resiz":5711,"Duplicate":5712,"spaces":5713,"canvas":5714,"prefix":5715,"maximum":5716,"addresses":5717,"serialize":5718,"ryp":5719,"ik":5720,"heard":5721,"arily":5722,"Tomcat":5723,"IZ":5724,"ards":5725,"Collections":5726,"cop":5727,"Crystal":5728,"dro":5729,"refactor":5730,"gar":5731,"LOC":5732,"advantages":5733,"larger":5734,"Free":5735,"por":5736,"asing":5737,"wasn":5738,"inct":5739,"orders":5740,"suggestion":5741,"recursive":5742,"alone":5743,"converting":5744,"copied":5745,"applied":5746,"td":5747,"v2":5748,"404":5749,"Cast":5750,"programmer":5751,"tot":5752,"roy":5753,"PropertyChanged":5754,"bb":5755,"clip":5756,"Setup":5757,"considering":5758,"\"+":5759,"BO":5760,"arbit":5761,"Match":5762,"See":5763,"Selection":5764,"movie":5765,"95":5766,"Uri":5767,"Loop":5768,"Implement":5769,"Assert":5770,"97":5771,"Editor":5772,"xs":5773,"utility":5774,"desc":5775,"explan":5776,"WebRequest":5777,"drawing":5778,"Drawing":5779,"adds":5780,"deployed":5781,"Ctr":5782,"Network":5783,"increase":5784,"associ":5785,"Everything":5786,"Pick":5787,"SH":5788,"android":5789,"iqu":5790,"log4":5791,"agram":5792,"bes":5793,"Membership":5794,"Solution":5795,"TFS":5796,"g_":5797,"Overflow":5798,"paint":5799,"linq":5800,"figured":5801,"Sample":5802,"Section":5803,"itude":5804,"'];":5805,"Navig":5806,"downloaded":5807,"contained":5808,"solid":5809,"Inform":5810,"criteria":5811,"........":5812,"Mobile":5813,"crete":5814,"Plu":5815,"reads":5816,"\"%":5817,"iver":5818,"packet":5819,"ambda":5820,"DC":5821,"har":5822,"restrict":5823,"controllers":5824,"talking":5825,"­­­­":5826,"Ter":5827,"comparison":5828,"SM":5829,"suit":5830,"Cons":5831,"addition":5832,"rypto":5833,"Proc":5834,"Static":5835,"sq":5836,"reet":5837,"oracle":5838,"poll":5839,"normally":5840,"bs":5841,"realize":5842,"Bundle":5843,"dispatch":5844,"kernel":5845,"zz":5846,"naming":5847,"breaks":5848,"opin":5849,"purposes":5850,"atives":5851,"overrid":5852,"calendar":5853,"ants":5854,"websites":5855,"fficient":5856,"Upload":5857,"attached":5858,"temporary":5859,"IMARY":5860,"reli":5861,"easiest":5862,"Projects":5863,"Cocoa":5864,"opens":5865,"Stop":5866,"ysis":5867,"Ctrl":5868,"odd":5869,"worker":5870,"URI":5871,"800":5872,"Pack":5873,"ome":5874,"che":5875,"moved":5876,"Device":5877,"contract":5878,"ris":5879,"99999999":5880,"Statement":5881,"PRIMARY":5882,"credentials":5883,"(*":5884,"squ":5885,"Subversion":5886,"heav":5887,"FirstName":5888,"Face":5889,"FTP":5890,"ipe":5891,"Vector":5892,"letter":5893,"ube":5894,"Possible":5895,"wiki":5896,"sig":5897,"series":5898,"Dif":5899,"Icon":5900,"csv":5901,"Cat":5902,"_date":5903,"'),":5904,"Pe":5905,"instruction":5906,"Dependency":5907,"builds":5908,"CONFI":5909,"Developer":5910,"Div":5911,"TER":5912,"mvc":5913,"invo":5914,"identify":5915,"country":5916,"equals":5917,"Langu":5918,"QUE":5919,"NSMutable":5920,"placing":5921,"aim":5922,"analy":5923,"therefore":5924,"wp":5925,"slide":5926,"ClassLoader":5927,"clarify":5928,"introdu":5929,"%>":5930,"54":5931,"fd":5932,"lting":5933,"Asp":5934,"hardware":5935,"incip":5936,"jump":5937,")\"":5938,"sleep":5939,"boot":5940,"handles":5941,"combination":5942,"ium":5943,"ids":5944,"shop":5945,"Multiple":5946,"verify":5947,"converted":5948,"ina":5949,"followed":5950,"markup":5951,"illa":5952,"Allow":5953,"_2":5954,"life":5955,"sends":5956,"MessageBox":5957,"ume":5958,"presentation":5959,"Remote":5960,"prototype":5961,"alter":5962,"IList":5963,"mes":5964,"tru":5965,"functional":5966,"manual":5967,"quotes":5968,"COUNT":5969,"OpenGL":5970,"ural":5971,"iving":5972,"aking":5973,"Fields":5974,"reporting":5975,"WinForms":5976,"heap":5977,"CSV":5978,"hang":5979,"states":5980,"tip":5981,"########":5982,"GROUP":5983,"eme":5984,"webpage":5985,"serting":5986,"postback":5987,"_list":5988,"entation":5989,"ATION":5990,")))":5991,"Creating":5992,"sorting":5993,"shortcut":5994,"Support":5995,"pure":5996,"locally":5997,"men":5998,"Views":5999,"128":6000,"Animation":6001,"ugly":6002,"YPE":6003,"datas":6004,"Sor":6005,"poly":6006,"Head":6007,"encing":6008,"copying":6009,"identifier":6010,"53":6011,"discover":6012,"250":6013,"decor":6014,"ressed":6015,"dot":6016,"htaccess":6017,"owner":6018,"visit":6019,"DIV":6020,"AMP":6021,"${":6022,"reflection":6023,"Ed":6024,"Progress":6025,"RA":6026,"imagine":6027,"Deploy":6028,"signature":6029,"Iter":6030,"proj":6031,"trust":6032,"channel":6033,"acity":6034,"removing":6035,"bat":6036,"Serializer":6037,"searched":6038,"Join":6039,"amera":6040,"city":6041,"x86":6042,"Outlook":6043,"typedef":6044,"68":6045,"dict":6046,"datagrid":6047,"Wrapper":6048,"PM":6049,"informs":6050,"]:":6051,"Adding":6052,"Cheers":6053,"cookies":6054,"Behavi":6055,"VBA":6056,"CLR":6057,"pain":6058,"encode":6059,"happy":6060,"warnings":6061,"'\"":6062,"uint":6063,"Layer":6064,"gen":6065,"zone":6066,"Accessor":6067,"Warning":6068,"die":6069,"_file":6070,"buf":6071,"Audio":6072,"land":6073,"BEGIN":6074,"Fill":6075,"factor":6076,"RT":6077,"has_":6078,"failure":6079,"nor":6080,"deli":6081,"resulting":6082,"Mapping":6083,"Pattern":6084,"Changes":6085,"reverse":6086,"chain":6087,"ances":6088,"CAS":6089,"_IN":6090,"Identity":6091,"crashes":6092,"somewhat":6093,"aven":6094,"news":6095,"Images":6096,"igning":6097,"arbitrary":6098,"repo":6099,"puts":6100,"CTION":6101,"completed":6102,"stores":6103,"Cha":6104,"orient":6105,"addr":6106,"Fore":6107,"smaller":6108,"dn":6109,"registered":6110,"mult":6111,"~/":6112,"Binary":6113,"maven":6114,"Ge":6115,";;":6116,"nav":6117,"clone":6118,"alendar":6119,"groovy":6120,"/**":6121,"wide":6122,"Unicode":6123,"Validate":6124,"Ema":6125,"numeric":6126,"advantage":6127,"suspect":6128,"ox":6129,"startup":6130,"Mis":6131,"communication":6132,"upgrade":6133,"nvarchar":6134,"FAU":6135,"ud":6136,"Chrome":6137,"stage":6138,"cant":6139,"uploaded":6140,"meta":6141,"w3":6142,"student":6143,"79":6144,"istics":6145,"hoo":6146,"130":6147,"YY":6148,"soap":6149,"compl":6150,"Mock":6151,"waiting":6152,"firefox":6153,"anonymous":6154,"convent":6155,"LEFT":6156,"dead":6157,"served":6158,"user_id":6159,"DEL":6160,"Sorry":6161,"Created":6162,"talk":6163,"Tools":6164,"keeping":6165,"']['":6166,"\"].":6167,"pag":6168,"Instead":6169,"Validator":6170,"picker":6171,"Border":6172,"BL":6173,"demo":6174,"GetType":6175,"}\",":6176,"delay":6177,"Auth":6178,"measure":6179,"Chart":6180,"Direct":6181,"xxxx":6182,"WE":6183,"----------------------------------------------------------------":6184,"cks":6185,"Desktop":6186,"XSLT":6187,"City":6188,"Dispatcher":6189,"desired":6190,"Dispose":6191,"emails":6192,"bal":6193,"Shared":6194,"routes":6195,"Namespace":6196,"ITY":6197,"indexes":6198,"Mvc":6199,"outer":6200,"Sign":6201,"fav":6202,"__init":6203,"wall":6204,"identity":6205,"Inner":6206,"hierarchy":6207,"_GET":6208,"cb":6209,"archive":6210,"Criteria":6211,"yield":6212,"typing":6213,"slight":6214,"smart":6215,"Contains":6216,"anno":6217,"cluster":6218,"VB6":6219,"150":6220,"Zend_":6221,"Area":6222,"Origin":6223,"Cookie":6224,")(":6225,"Pane":6226,"keeps":6227,"ycle":6228,"ping":6229,"Looking":6230,"Cance":6231,"256":6232,"Language":6233,"JP":6234,"ousand":6235,"Git":6236,"went":6237,"INNER":6238,"closing":6239,"Information":6240,"leting":6241,"cancel":6242,"Integr":6243,"liter":6244,"Behavior":6245,"vim":6246,"__init__":6247,"jboss":6248,"env":6249,"Sof":6250,"apple":6251,"saw":6252,"took":6253,"Move":6254,"_value":6255,"SERVER":6256,"Plugin":6257,"Calendar":6258,"osite":6259,"constraint":6260,"_array":6261,"MFC":6262,"127":6263,"SP1":6264,"recommended":6265,"AtIndex":6266,"inheritance":6267,"divs":6268,"frag":6269,"mapped":6270,"Role":6271,"writes":6272,"udo":6273,"combo":6274,"circ":6275,"duplic":6276,"sections":6277,"compilation":6278,"MV":6279,"hot":6280,"arrow":6281,"described":6282,"Norm":6283,"bage":6284,"OutputStream":6285,"Activity":6286,"0_":6287,"HE":6288,"cd":6289,"lab":6290,"ouch":6291,"accessible":6292,",'":6293,"Ub":6294,"populated":6295,"thousand":6296,"Updat":6297,"magic":6298,"integrate":6299,"interpret":6300,"ideal":6301,"decide":6302,"somebody":6303,"hear":6304,"ond":6305,"alk":6306,"Price":6307,"vm":6308,"encoded":6309,"generally":6310,"requested":6311,"Stuff":6312,"Environment":6313,"Att":6314,"reload":6315,"revision":6316,"gridview":6317,"Picker":6318,"extern":6319,"IDs":6320,"Resol":6321,"[:":6322,"lap":6323,"_string":6324,"++?":6325,"encrypted":6326,"prite":6327,"sessions":6328,"win32":6329,"phys":6330,"DEFAU":6331,"Failed":6332,"branches":6333,"partment":6334,"Stor":6335,"broken":6336,"_RE":6337,"jdbc":6338,"DEBU":6339,"ini":6340,"maps":6341,"stackoverflow":6342,"Suppose":6343,"legal":6344,"conflic":6345,"agnost":6346,"Emacs":6347,"sock":6348,"springframework":6349,"toolbar":6350,"explanation":6351,"preferred":6352,"asynchron":6353,"ordered":6354,"ActionResult":6355,"#{":6356,"till":6357,"sdl":6358,"Autom":6359,"rate":6360,"Ubuntu":6361,"reduce":6362,"Zip":6363,"grow":6364,"seudo":6365,"Stored":6366,"dealing":6367,"set_":6368,"months":6369,"IA":6370,"currency":6371,"distance":6372,"listed":6373,"uid":6374,"math":6375,"Ident":6376,"plug":6377,"sb":6378,"filled":6379,"Enterprise":6380,"Step":6381,"Flags":6382,"Bel":6383,"Photo":6384,"Vide":6385,"prints":6386,"initialized":6387,"++,":6388,"strategy":6389,"Cert":6390,"signal":6391,"ons":6392,"rm":6393,"WebService":6394,"sqlite3":6395,"sources":6396,"implementations":6397,"Android":6398,"mor":6399,"onclick":6400,"_Click":6401,"Children":6402,"89":6403,"Vert":6404,"colors":6405,"essentially":6406,"UserName":6407,"67":6408,"Sharp":6409,"strip":6410,"ital":6411,"Converter":6412,"iques":6413,"_SE":6414,"gres":6415,"formatted":6416,"Running":6417,"executes":6418,"successful":6419,"consum":6420,"interact":6421,"community":6422,"pixels":6423,"subscri":6424,"Mark":6425,"sight":6426,"upper":6427,"classic":6428,"Export":6429,"Canvas":6430,"relatively":6431,"ASCII":6432,"ading":6433,"alternatives":6434,"locations":6435,"totally":6436,"CONFIG_":6437,"Split":6438,"mine":6439,"logger":6440,"Defin":6441,"cessed":6442,"Protocol":6443,"Ado":6444,"cycle":6445,"complain":6446,"signific":6447,"metadata":6448,"fc":6449,"styles":6450,"\"],":6451,"alina":6452,"Scal":6453,"XPath":6454,"ners":6455,"usable":6456,"undred":6457,"Student":6458,"C_":6459,"dom":6460,"inputs":6461,"encountered":6462,"\"-":6463,"PublicKey":6464,"Arch":6465,"emacs":6466,"Month":6467,"GUID":6468,"night":6469,"Thing":6470,"chool":6471,"algorithms":6472,"serializ":6473,"Cor":6474,"Drag":6475,"itive":6476,"generation":6477,"impl":6478,"]]":6479,"ees":6480,"t1":6481,"inserting":6482,"preferably":6483,"&#":6484,"Track":6485,"swing":6486,"accessed":6487,"ists":6488,"tableView":6489,"IE8":6490,"bugs":6491,"vile":6492,"uri":6493,"approaches":6494,"sounds":6495,"Maven":6496,"_s":6497,"review":6498,"gem":6499,"previously":6500,"underlying":6501,"87":6502,"Well":6503,"spread":6504,"Reporting":6505,"Pay":6506,"-(":6507,"continu":6508,"Facebook":6509,"itely":6510,"Acc":6511,"feedback":6512,"RSS":6513,"concat":6514,"selves":6515,"Rand":6516,"licit":6517,"Amount":6518,"destination":6519,"neg":6520,"lazy":6521,"research":6522,"usual":6523,"Proced":6524,"00000":6525,"SqlCommand":6526,"John":6527,"bring":6528,"flags":6529,"ftp":6530,"1px":6531,"minimum":6532,"GWT":6533,"Const":6534,"argv":6535,"WSDL":6536,"average":6537,"Works":6538,"'+":6539,"runat":6540,"connecting":6541,",$":6542,"bul":6543,"a_":6544,"identical":6545,"Specif":6546,"{'":6547,"istrator":6548,"hundred":6549,"NSURL":6550,"ACK":6551,"English":6552,"trivi":6553,"inherited":6554,"Your":6555,"lent":6556,"portion":6557,"overhead":6558,"turned":6559,"Detail":6560,"Equals":6561,"Game":6562,"Xcode":6563,"crypt":6564,"Development":6565,"(`":6566,"whose":6567,"'\\":6568,"ii":6569,"++.":6570,"produces":6571,"ActiveX":6572,"Offset":6573,"thumbn":6574,"FK":6575,"unknown":6576,"Tables":6577,"square":6578,"EM":6579,"Ord":6580,"designed":6581,"}/":6582,"resolved":6583,"interval":6584,"handlers":6585,"IV":6586,"restart":6587,"ETE":6588,"told":6589,"apparently":6590,"listing":6591,"axis":6592,"Page_":6593,"involved":6594,"ffic":6595,"Sharepoint":6596,"optional":6597,"outputs":6598,"pressed":6599,"_time":6600,"hits":6601,"incorrect":6602,"ats":6603,"Entities":6604,"Products":6605,"Specifically":6606,"DEBUG":6607,"stick":6608,"deser":6609,"Consider":6610,"D_":6611,"Hi":6612,"Wnd":6613,"arant":6614,"ifest":6615,"simpler":6616,"backend":6617,"LastName":6618,"Cancel":6619,"Card":6620,"zilla":6621,"user_":6622,"tells":6623,"tracking":6624,"scripting":6625,"animate":6626,"newb":6627,"urls":6628,"CMS":6629,"caused":6630,"Loaded":6631,"Black":6632,")/":6633,"51":6634,"mist":6635,"Dev":6636,"OUT":6637,"tar":6638,"wsdl":6639,"Viewer":6640,"DropDownList":6641,"Driver":6642,"Resources":6643,"printing":6644,"accounts":6645,"BOO":6646,"Flo":6647,"Testing":6648,"technology":6649,"guid":6650,"Below":6651,"fn":6652,"percent":6653,"vertical":6654,"COL":6655,"acceptable":6656,"Year":6657,"CODE":6658,"labels":6659,"atom":6660,"Issu":6661,"Altern":6662,"catalina":6663,"winfx":6664,"destroy":6665,"Nodes":6666,"mydomain":6667,"tomcat":6668,"ele":6669,"Managed":6670,"Calc":6671,"Software":6672,"JVM":6673,"respond":6674,"anchor":6675,"trivial":6676,"ula":6677,"linking":6678,"Regards":6679,"chars":6680,"entirely":6681,"WORD":6682,"selecting":6683,"------------------------":6684,"iting":6685,"new_":6686,"Good":6687,"Kit":6688,"Sli":6689,"suc":6690,"'%":6691,"older":6692,"rt":6693,"ising":6694,"samples":6695,"accepted":6696,"(:":6697,"builder":6698,"Sheet":6699,"Logger":6700,"1024":6701,"dw":6702,"ana":6703,"Reports":6704,"discussion":6705,"Play":6706,"ought":6707,".....":6708,"communicate":6709,"lack":6710,"grep":6711,"throwing":6712,"Center":6713,"Ph":6714,"aper":6715,"Boss":6716,"guessing":6717,"techniques":6718,"\\.":6719,"significant":6720,"eventually":6721,"failing":6722,"silverlight":6723,"CD":6724,"malloc":6725,"Processor":6726,"replaced":6727,"routine":6728,"PublicKeyToken":6729,"SqlClient":6730,"assignment":6731,"pk":6732,"upal":6733,"Comment":6734,"Charact":6735,"sat":6736,"allocated":6737,"Son":6738,"serialization":6739,"StringBuilder":6740,"spot":6741,"representation":6742,"planning":6743,"Dr":6744,"\"$":6745,"2nd":6746,"webapp":6747,"printer":6748,"personal":6749,"awt":6750,"LOG":6751,"singleton":6752,"membership":6753,"RAM":6754,"CESS":6755,"!)":6756,"paces":6757,"Pointer":6758,"RewriteRule":6759,"IZE":6760,"employ":6761,"DECL":6762,"BB":6763,"OF":6764,"shal":6765,"Reflection":6766,"distinct":6767,"Space":6768,"gone":6769,"readable":6770,"SSION":6771,"responses":6772,"integers":6773,"lified":6774,"agent":6775,"diagram":6776,"readonly":6777,"Anal":6778,"rake":6779,"encryption":6780,"technique":6781,"analysis":6782,"p_":6783,"friendly":6784,"Else":6785,"lambda":6786,"Answ":6787,"(/":6788,"xsd":6789,"ancy":6790,"reme":6791,"locked":6792,"med":6793,"agg":6794,"instantiate":6795,"toString":6796,"loss":6797,"etty":6798,"erson":6799,"lace":6800,"processed":6801,"ticket":6802,"forums":6803,"helps":6804,"minim":6805,"structures":6806,"bold":6807,"garbage":6808,"Video":6809,"](":6810,"quality":6811,"_c":6812,"ens":6813,"threaded":6814,"footer":6815,"extensions":6816,"Enable":6817,"ball":6818,"released":6819,"Equal":6820,"Country":6821,"Ke":6822,"ROW":6823,"2f":6824,"concerned":6825,"727":6826,"cool":6827,"Required":6828,"modification":6829,"scrolling":6830,"pseudo":6831,"mysite":6832,"receiving":6833,"allery":6834,"ipedia":6835,"Short":6836,"Desc":6837,"loops":6838,"segment":6839,"ceptor":6840,"ape":6841,"obox":6842,"guarant":6843,"Execution":6844,"persistence":6845,"Foreign":6846,"Swing":6847,"pm":6848,"checkout":6849,"@@":6850,"duration":6851,"slightly":6852,"Jun":6853,"}}":6854,"sitive":6855,"CGRect":6856,"TreeView":6857,"achie":6858,"locale":6859,"Press":6860,"Performance":6861,"DECLARE":6862,"Debugg":6863,"Random":6864,"compiles":6865,"max_":6866,"constraints":6867,"ational":6868,"olation":6869,"designing":6870,"USB":6871,"mysql_query":6872,"SMTP":6873,"uations":6874,"Follow":6875,"Align":6876,"Plat":6877,"is_":6878,"Formatter":6879,"Generate":6880,"QUEST":6881,"Adobe":6882,"score":6883,"acing":6884,"Movie":6885,"imageNamed":6886,"quote":6887,"ConnectionString":6888,"automatic":6889,"collections":6890,"AGE":6891,"tiny":6892,"experiment":6893,"submitted":6894,"(-":6895,"colour":6896,"higher":6897,"199":6898,"IST":6899,"JBoss":6900,"unicode":6901,"implicit":6902,"threading":6903,"High":6904,"selects":6905,"active_":6906,"ustr":6907,"Override":6908,"Attach":6909,"pred":6910,"impos":6911,"CA":6912,"FOR":6913,"Serialization":6914,"irection":6915,"jobs":6916,"'';":6917,"devices":6918,"doesnt":6919,"Dest":6920,"gno":6921,"A1":6922,"Ow":6923,"toggle":6924,"marked":6925,"terminal":6926,"annoying":6927,"3d":6928,"cra":6929,"wd":6930,"insight":6931,"definitely":6932,"snap":6933,"Completed":6934,"ummy":6935,"Place":6936,"101":6937,"coordinates":6938,"Differ":6939,"PER":6940,"Perhaps":6941,"sho":6942,"depends":6943,"among":6944,"reasonable":6945,"automated":6946,"v_":6947,"sumpt":6948,"Selector":6949,"Interop":6950,"generator":6951,"DEFAULT":6952,"JDBC":6953,"mutable":6954,"formats":6955,"facing":6956,"(*)":6957,"differently":6958,"'$":6959,"wt":6960,"accur":6961,"ViewData":6962,",@":6963,"94":6964,"expose":6965,"aspect":6966,"Buffered":6967,"signing":6968,"Ole":6969,"izer":6970,"programatically":6971,"AUT":6972,"ICE":6973,"OFF":6974,"resolution":6975,"uni":6976,"Exit":6977,"Quick":6978,"120":6979,"claim":6980,"themselves":6981,"192":6982,"Programming":6983,"\"\",":6984,"Json":6985,"Rich":6986,"deleting":6987,"utral":6988,"raise":6989,"wire":6990,"indicate":6991,"intended":6992,"upid":6993,"STAT":6994,"initialization":6995,"employee":6996,"symbols":6997,"%;":6998,"fly":6999,"clue":7000,"Username":7001,"_path":7002,"tt":7003,"unders":7004,"Loading":7005,"Launch":7006,"agraph":7007,"_to_":7008,"preview":7009,"Changing":7010,"72":7011,"AccessorImpl":7012,"600":7013,"moo":7014,"Chain":7015,"lp":7016,"applet":7017,"scrollbar":7018,"transactions":7019,"Vim":7020,"NSArray":7021,"policy":7022,"Checked":7023,"schedule":7024,"Bet":7025,"Foc":7026,"Serial":7027,"scratch":7028,"BT":7029,"Mess":7030,"grad":7031,"texture":7032,"Sonic":7033,"Jquery":7034,"bing":7035,"ention":7036,"manner":7037,"simplified":7038,"MBER":7039,"fired":7040,"Artic":7041,"marks":7042,"Scope":7043,"shut":7044,"situations":7045,"shift":7046,"CGI":7047,"regardless":7048,"zoom":7049,"SqlConnection":7050,"instructions":7051,"Touch":7052,"WIT":7053,"neither":7054,"neutral":7055,"allowing":7056,"filters":7057,"aggreg":7058,"impossible":7059,"anymore":7060,"MSBuild":7061,"ercial":7062,"Lat":7063,"uent":7064,"unfortunately":7065,"extreme":7066,"pointing":7067,"Modal":7068,"navigate":7069,"Download":7070,"Matrix":7071,"PostBack":7072,"Fix":7073,"oring":7074,"experienced":7075,"clearly":7076,"ture":7077,"roles":7078,"msdn":7079,"combine":7080,"newbie":7081,"74":7082,"mask":7083,"ALTER":7084,"attachment":7085,"DAO":7086,"RET":7087,"completion":7088,"crit":7089,"(\\":7090,"graphic":7091,"Feed":7092,"WAR":7093,"ggling":7094,"EventListener":7095,"listener":7096,"skip":7097,"Dll":7098,"jav":7099,"minute":7100,"traffic":7101,"animated":7102,"XXXX":7103,"Structure":7104,"OT":7105,"Pages":7106,"_b":7107,"apsed":7108,"SubSonic":7109,"adjust":7110,"Contents":7111,"HttpServlet":7112,"explorer":7113,"Monitor":7114,"compared":7115,"Luc":7116,"PATH":7117,"dl":7118,"relationships":7119,"heavy":7120,"isions":7121,"Repe":7122,"paw":7123,":'":7124,"RC":7125,"license":7126,"Elements":7127,"holds":7128,"allel":7129,"theme":7130,"Big":7131,"rename":7132,"edge":7133,"initializ":7134,"Notification":7135,"flat":7136,"OLE":7137,"pic":7138,"anti":7139,"Agent":7140,"\"}":7141,"house":7142,"Unix":7143,";)":7144,"r1":7145,"Queryable":7146,"missed":7147,"browse":7148,"Pixel":7149,"Compare":7150,"leak":7151,"innerHTML":7152,"Sched":7153,"()?":7154,"SSIS":7155,"Spe":7156,"pid":7157,"usic":7158,"domains":7159,"Tor":7160,"atal":7161,"orter":7162,"QU":7163,"DR":7164,"bey":7165,"alias":7166,"+\"":7167,"green":7168,"84":7169,"restore":7170,"consistent":7171,"potentially":7172,"ahoo":7173,"ablish":7174,"IOException":7175,"sheets":7176,"Publish":7177,"Wi":7178,"v1":7179,"nder":7180,"office":7181,"particularly":7182,"Compiler":7183,"cron":7184,"peg":7185,"ssl":7186,"MENT":7187,"repeated":7188,"touches":7189,"copies":7190,"Scan":7191,"stupid":7192,"Keys":7193,"ado":7194,"++++":7195,"85":7196,"ODBC":7197,"meant":7198,"deep":7199,"invest":7200,"Span":7201,"_FILE":7202,"istic":7203,"APIs":7204,"turns":7205,"FFFF":7206,"hic":7207,"textarea":7208,"Rectangle":7209,"digits":7210,"Invocation":7211,"listbox":7212,"benefit":7213,"isp":7214,"stops":7215,"benefits":7216,"Procedure":7217,"levels":7218,"rotate":7219,"Mach":7220,"translate":7221,"HttpRequest":7222,"YS":7223,"_r":7224,"`,":7225,"Its":7226,"depth":7227,"triggers":7228,"'))":7229,"him":7230,"idden":7231,"feels":7232,"expecting":7233,"Av":7234,"GC":7235,"posting":7236,"NotFound":7237,"Ax":7238,"Gre":7239,"_ptr":7240,"otes":7241,"mainly":7242,"ifies":7243,"LS":7244,"compatibility":7245,"hyper":7246,"decode":7247,"Execut":7248,"explo":7249,"represents":7250,"prepare":7251,"tranet":7252,"-+":7253,"gotten":7254,"LP":7255,"rich":7256,"bounds":7257,"'',":7258,"Sun":7259,"ename":7260,"subversion":7261,"Sometimes":7262,"band":7263,"reply":7264,"7f":7265,"ety":7266,"bench":7267,"FER":7268,"mits":7269,"ServiceModel":7270,"modifying":7271,"regards":7272,"Keep":7273,"Inv":7274,"Methods":7275,"82":7276,"fish":7277,"worry":7278,"DESC":7279,"DAL":7280,"story":7281,"uk":7282,"trim":7283,"Soap":7284,"AINT":7285,"pub":7286,"utili":7287,"IsNull":7288,"SWF":7289,"satis":7290,"WN":7291,"gan":7292,"summary":7293,"Serializable":7294,"htm":7295,"abling":7296,"keywords":7297,"ashes":7298,"XHTML":7299,"fru":7300,"workspace":7301,"Initial":7302,"endpoint":7303,"computers":7304,"2d":7305,"cn":7306,"distributed":7307,"combobox":7308,"rectangle":7309,"seemed":7310,"ellis":7311,"Holder":7312,"stmt":7313,"Hope":7314,"tcp":7315,"charset":7316,"Threading":7317,"Ra":7318,"t2":7319,"typical":7320,"MQ":7321,"Subject":7322,"happened":7323,"sensitive":7324,"SUM":7325,"gs":7326,"concrete":7327,"moder":7328,"central":7329,"has_many":7330,"opinion":7331,"prop":7332,"programmers":7333,"frames":7334,"_table":7335,"hr":7336,"asion":7337,"antity":7338,"earlier":7339,"servable":7340,"JB":7341,"wrapped":7342,"????":7343,"reliable":7344,"_key":7345,"Loc":7346,"Cursor":7347,")\\":7348,"plot":7349,"UTF8":7350,"pairs":7351,"commercial":7352,"beta":7353,"AIN":7354,"Fetch":7355,"meet":7356,"Mono":7357,"poor":7358,"Workflow":7359,"Mag":7360,"Sk":7361,"possibility":7362,"OB":7363,"Counter":7364,"_to":7365,"ye":7366,"defining":7367,"stdout":7368,"beyond":7369,"_NAME":7370,"chase":7371,"Added":7372,"wheel":7373,"optimize":7374,"ellisense":7375,"ste":7376,"$('.":7377,"Finish":7378,"Grails":7379,"PNG":7380,"async":7381,"adapter":7382,"Anyway":7383,"flush":7384,"blocking":7385,"icons":7386,"manipulate":7387,"ah":7388,"twe":7389,"Comput":7390,"sharepoint":7391,"Foundation":7392,"STL":7393,"family":7394,"nat":7395,"INF":7396,"breakpoint":7397,"Popup":7398,"compression":7399,"Errors":7400,"separated":7401,"IGN":7402,"Brush":7403,"DELETE":7404,"Fast":7405,"seper":7406,"Inher":7407,"...\"":7408,"simplest":7409,"<!":7410,"hints":7411,"notes":7412,"WINDO":7413,"Batch":7414,"LY":7415,"eb":7416,"inks":7417,"conditional":7418,"effects":7419,"nicely":7420,"AFE":7421,"63":7422,"Cho":7423,"50727":7424,"sorry":7425,"Trying":7426,"Identifier":7427,"Flow":7428,"metr":7429,"Classes":7430,"Primary":7431,"horizontal":7432,"]=":7433,"_in":7434,"ctrl":7435,"Interval":7436,"attempts":7437,"GCC":7438,"_M":7439,"ipping":7440,"Del":7441,"maz":7442,"Don":7443,"KB":7444,"gave":7445,"mp3":7446,"unexpected":7447,"checkboxes":7448,"icial":7449,"$(\".":7450,"Lucene":7451,"#)":7452,"Pipe":7453,"isation":7454,"bea":7455,"inserts":7456,"denied":7457,"photos":7458,"Decimal":7459,"Original":7460,"Focus":7461,"hence":7462,"{$":7463,"ino":7464,"whites":7465,"Trigg":7466,"Page_Load":7467,"camera":7468,"xsl":7469,"limin":7470,"/\"":7471,"61":7472,"curl_":7473,"popular":7474,"establish":7475,"oney":7476,"file_":7477,"fileName":7478,"ffff":7479,"scheme":7480,"ught":7481,"Conn":7482,"ports":7483,"SUB":7484,"People":7485,"Missing":7486,"school":7487,"serialized":7488,"spent":7489,"thank":7490,"PART":7491,"_D":7492,"exclude":7493,"logical":7494,"validator":7495,"necessarily":7496,"TEXT":7497,"toise":7498,"subsequ":7499,"ideally":7500,"decrypt":7501,"invoked":7502,"abilities":7503,"definitions":7504,"discovered":7505,"81":7506,"ny":7507,"001":7508,"corner":7509,"letters":7510,"refactoring":7511,"NSMutableArray":7512,"ius":7513,"authenticate":7514,"Toolkit":7515,"DataReader":7516,"initially":7517,"knowing":7518,"registration":7519,"Package":7520,"Clip":7521,"168":7522,"Hor":7523,"compress":7524,"viewer":7525,"NUMBER":7526,"isecond":7527,"Customers":7528,"screenshot":7529,"concaten":7530,"PUT":7531,"USE":7532,"searches":7533,"MethodAccessorImpl":7534,"=(":7535,"ering":7536,"environ":7537,"convention":7538,"conven":7539,"ague":7540,"Designer":7541,"Navigation":7542,"Deployment":7543,"Dem":7544,"GAC":7545,"_of":7546,"wiz":7547,"Retr":7548,"printed":7549,"nl":7550,"acts":7551,"smtp":7552,"replacement":7553,"bum":7554,"pare":7555,"prof":7556,"areas":7557,"Params":7558,"\"'":7559,"tb":7560,"floating":7561,"StackTrace":7562,"MVVM":7563,"cade":7564,"platforms":7565,"GL_":7566,"LIB":7567,"Ve":7568,"ToList":7569,"ORT":7570,"widgets":7571,"contacts":7572,"Fail":7573,"filer":7574,"slower":7575,"evaluate":7576,"suitable":7577,"rely":7578,"ipient":7579,"Calling":7580,"Received":7581,"thousands":7582,"EF":7583,"RPC":7584,"reuse":7585,"advis":7586,"opposed":7587,".\");":7588,"Us":7589,"replacing":7590,"paragraph":7591,"Regular":7592,"LIKE":7593,"=&":7594,"ban":7595,"caught":7596,"FileStream":7597,"sdk":7598,"XSD":7599,"gon":7600,"videos":7601,"recognize":7602,"Summary":7603,"adap":7604,"visitor":7605,"Alert":7606,"DLLs":7607,"ddl":7608,"asynchronous":7609,"(...)":7610,"\".$":7611,"\"\"\"":7612,"Util":7613,"WITH":7614,"enance":7615,"CheckBox":7616,"absolutely":7617,"datasource":7618,"OC":7619,"ipped":7620,"million":7621,"OleDb":7622,"extremely":7623,"p1":7624,"===":7625,"holder":7626,"practical":7627,"fires":7628,"Real":7629,"(\"/":7630,"referencing":7631,"Beans":7632,"automate":7633,"MemoryStream":7634,"potential":7635,"={":7636,"Ma":7637,"room":7638,"transition":7639,"\"/>":7640,"Cake":7641,"UserId":7642,"Kind":7643,"ried":7644,"Success":7645,"describe":7646,"technical":7647,"volume":7648,"Invoice":7649,"atomic":7650,"hs":7651,"basis":7652,"Having":7653,"NUnit":7654,"Descri":7655,"mc":7656,"unmanaged":7657,"Adv":7658,"performing":7659,":#":7660,"JN":7661,":\\\\":7662,"62":7663,"ACE":7664,"irth":7665,"mitted":7666,"positories":7667,"Verbs":7668,"Answer":7669,"celer":7670,"sizes":7671,"filtering":7672,"FL":7673,"mi":7674,"uler":7675,"Website":7676,"ANT":7677,"recommendations":7678,"DU":7679,"J2":7680,"lose":7681,"CONSTR":7682,"physical":7683,"Definition":7684,"struggling":7685,"ABC":7686,"Questions":7687,"mutex":7688,"strongly":7689,"10000":7690,"Cach":7691,"kell":7692,"retch":7693,"feeling":7694,"1st":7695,"edited":7696,"wnd":7697,"miss":7698,"confusing":7699,"Machine":7700,"expensive":7701,"dou":7702,"inf":7703,"instantiated":7704,"chance":7705,"pros":7706,"1111":7707,"imageshack":7708,"injection":7709,"stub":7710,"facebook":7711,"greater":7712,"frequently":7713,"succeed":7714,"Emb":7715,"Lif":7716,"independent":7717,"ises":7718,"enger":7719,"ctl":7720,"Prot":7721,"posing":7722,"Form1":7723,"Der":7724,"IQueryable":7725,"originally":7726,"switching":7727,"Blue":7728,"Radio":7729,"Ca":7730,"Under":7731,"incoming":7732,"comma":7733,"Strip":7734,"operating":7735,"TRANS":7736,"Safe":7737,"cart":7738,"chunk":7739,"xyz":7740,"ignored":7741,"oriented":7742,"According":7743,"2_":7744,"EJB":7745,"star":7746,"Singleton":7747,"________":7748,"pu":7749,"aves":7750,"mysq":7751,"notify":7752,"log4j":7753,"////////////////":7754,"_user":7755,"cgi":7756,"<%":7757,"ssh":7758,"chat":7759,"5000":7760,"jpeg":7761,"apart":7762,"curial":7763,"Notes":7764,"breaking":7765,"priority":7766,"locking":7767,"bindings":7768,"negative":7769,"10px":7770,"slider":7771,"syn":7772,"typically":7773,"Marshal":7774,"Sales":7775,"hopefully":7776,"ascx":7777,"Paint":7778,"BOOL":7779,"_url":7780,"olog":7781,"towards":7782,"[])":7783,"/$":7784,"GA":7785,"General":7786,"TEST":7787,"Bad":7788,"buff":7789,"sonic":7790,"UITableViewCell":7791,"CONSTRAINT":7792,"Igno":7793,"]];":7794,"opacity":7795,"pointed":7796,"enterprise":7797,"decent":7798,"?,":7799,"hum":7800,"elsewhere":7801,"digit":7802,"GER":7803,"ATL":7804,"greSQL":7805,"choices":7806,"protect":7807,"JPA":7808,"logo":7809,"exper":7810,"compressed":7811,"configur":7812,"Therefore":7813,"accepts":7814,"effort":7815,"complexity":7816,"Issue":7817,"bg":7818,"zer":7819,"Region":7820,"================================":7821,"=[":7822,"gain":7823,"mand":7824,"deed":7825,"locate":7826,"express":7827,"editable":7828,"Character":7829,"sumption":7830,"c1":7831,"notation":7832,"Clean":7833,"abort":7834,"HttpWebRequest":7835,"pieces":7836,"ua":7837,"uled":7838,"exam":7839,"Algorith":7840,"thumbnail":7841,".=":7842,"spaw":7843,"preter":7844,"stopped":7845,"lbl":7846,"mv":7847,"2010":7848,"Based":7849,"StackOverflow":7850,"friends":7851,"Fusion":7852,"assum":7853,"subst":7854,"involves":7855,"Tip":7856,"_H":7857,"lb":7858,"test_":7859,"advanced":7860,"Reading":7861,"solving":7862,"Compar":7863,"bigger":7864,"}.":7865,"shape":7866,"Building":7867,"specifying":7868,"distribution":7869,"Orders":7870,"bus":7871,"anies":7872,"unix":7873,"ulating":7874,"moves":7875,"ipher":7876,"Reset":7877,"authenticated":7878,"STRING":7879,"migrate":7880,"Picture":7881,"winforms":7882,"defaults":7883,"skill":7884,"'],":7885,"aste":7886,"finite":7887,"UST":7888,"emon":7889,"Constructor":7890,"Although":7891,"matters":7892,"highly":7893,"investig":7894,".:":7895,"StreamReader":7896,"trunc":7897,"cret":7898,"Firebug":7899,"triggered":7900,"PowerShell":7901,"Float":7902,"wizard":7903,"Bre":7904,"ffect":7905,"filesystem":7906,"epad":7907,"daily":7908,"Embed":7909,"rank":7910,"wik":7911,"lling":7912,"userid":7913,"sufficient":7914,"Include":7915,"integrated":7916,"GNU":7917,"telling":7918,"93":7919,"UM":7920,"~~":7921,"andid":7922,"Sequ":7923,"URE":7924,"%{":7925,"bracket":7926,"LOCK":7927,"_SESSION":7928,"ors":7929,"WebControls":7930,"passwords":7931,"Transfer":7932,"allocate":7933,"optimization":7934,"Hy":7935,"princip":7936,"substring":7937,"surpr":7938,"UIImageView":7939,"LDAP":7940,"------+":7941,"Storage":7942,"whitespace":7943,"UL":7944,"hasn":7945,"corpor":7946,"performed":7947,"83":7948,"curl":7949,"Utils":7950,":-)":7951,"ACT":7952,"iff":7953,"ONE":7954,"sockets":7955,"blogs":7956,"concern":7957,"circle":7958,"bon":7959,"asper":7960,"Without":7961,"inherits":7962,"gmail":7963,"rights":7964,"namespaces":7965,"receives":7966,"lenium":7967,"Sync":7968,"Enumer":7969,"hosts":7970,"IMIT":7971,"?\"":7972,"x64":7973,"ark":7974,"Observable":7975,"sp_":7976,"Comments":7977,"EXE":7978,"Da":7979,"wind":7980,"wrapping":7981,"renders":7982,"bly":7983,"IDENT":7984,"ContentType":7985,"Boost":7986,"Super":7987,"Ignore":7988,"DK":7989,"Opt":7990,"gwt":7991,"autocomplete":7992,"PostgreSQL":7993,"datatable":7994,"Iterator":7995,"Scala":7996,"DWORD":7997,"glob":7998,"(\"%":7999,"MenuItem":8000,".[":8001,"ications":8002,"Tortoise":8003,"environments":8004,"8000":8005,"{{":8006,"eric":8007,"colle":8008,"ANG":8009,"deliver":8010,"Descriptor":8011,"leaving":8012,"formula":8013,"overlay":8014,"manifest":8015,"iteration":8016,"CONT":8017,"atient":8018,"webserver":8019,"TRUE":8020,"Edition":8021,"RD":8022,"********************************":8023,"fre":8024,"gather":8025,"retrieved":8026,"Bal":8027,"TIME":8028,"mov":8029,"simulator":8030,"234":8031,"Tcp":8032,"dummy":8033,"stable":8034,"argc":8035,"feeds":8036,"ultane":8037,"CHEC":8038,"activate":8039,".*;":8040,"Termin":8041,"MyApp":8042,"yyyy":8043,"HEAD":8044,"Hot":8045,"gdb":8046,"DataContract":8047,"deploying":8048,"appendChild":8049,"calculations":8050,"CHECK":8051,".(":8052,"180":8053,"_code":8054,"ascade":8055,"conv":8056,"parallel":8057,"Subs":8058,"approx":8059,"Gen":8060,"jetty":8061,"interactive":8062,"Anybody":8063,"Twitter":8064,"Alignment":8065,"clock":8066,"tile":8067,"Coll":8068,"classpath":8069,"Final":8070,"tructor":8071,"Prefer":8072,"proceed":8073,"twitter":8074,"layers":8075,"performs":8076,"AAAA":8077,"Receive":8078,"Article":8079,"ASE":8080,"fonts":8081,"cores":8082,"documented":8083,"rupted":8084,"WebBrowser":8085,"Preview":8086,"isset":8087,"ament":8088,"raised":8089,"swap":8090,"Refresh":8091,"elimin":8092,"song":8093,"technologies":8094,"Age":8095,"Cmd":8096,"PT":8097,"vote":8098,"visibility":8099,"sibility":8100,"WEB":8101,"Drupal":8102,")*":8103,"Fri":8104,"Sound":8105,"_text":8106,"ecycle":8107,"DataRow":8108,"maintenance":8109,"Suggest":8110,"gtk":8111,"culture":8112,"gz":8113,"sr":8114,"=>\"":8115,"RESU":8116,"administrator":8117,"fragment":8118,"OW":8119,"PI":8120,"passes":8121,"Crypto":8122,"bc":8123,"geo":8124,"UInt":8125,"AppDomain":8126,"occasion":8127,"Old":8128,"shall":8129,"DIR":8130,"About":8131,"Cells":8132,"manipulation":8133,"straightforward":8134,"Headers":8135,"Platform":8136,"parsed":8137,"Metadata":8138,"Merge":8139,"5px":8140,"Amaz":8141,"AS3":8142,"besides":8143,"MX":8144,"i_":8145,"money":8146,"p2":8147,"road":8148,"TextWriter":8149,"scape":8150,"Commun":8151,"DEX":8152,"calculation":8153,"RGB":8154,"estim":8155,"ListItem":8156,"drawn":8157,"Routed":8158,"Renderer":8159,"spreadsheet":8160,"'?":8161,"teach":8162,"Strings":8163,"aspnet":8164,"decision":8165,"%}":8166,"assist":8167,"libs":8168,"privile":8169,"Tests":8170,"Diagnost":8171,"EXEC":8172,"joins":8173,"THEN":8174,"Sys":8175,"Take":8176,"vec":8177,"Exchange":8178,"redirected":8179,"gallery":8180,"73":8181,"pal":8182,"aining":8183,"DataBind":8184,"minimal":8185,"internally":8186,"Eval":8187,"Way":8188,"tup":8189,"wee":8190,"shad":8191,"READ":8192,"learned":8193,";,":8194,"trad":8195,"kept":8196,"caller":8197,"stylesheet":8198,"effective":8199,"casting":8200,"Tags":8201,"Horizontal":8202,"Direction":8203,"ped":8204,"{%":8205,"hundreds":8206,"Owner":8207,"Cru":8208,"indent":8209,"Ess":8210,"Rot":8211,"Deleg":8212,"nullable":8213,"dirty":8214,"routing":8215,"serving":8216,"uploading":8217,"Haskell":8218,"Groups":8219,"migration":8220,"downloading":8221,"favor":8222,"Bob":8223,"baz":8224,"ply":8225,"inspect":8226,"concurrent":8227,"realized":8228,".`":8229,"Same":8230,"TY":8231,"f1":8232,"qual":8233,"UserID":8234,"Registry":8235,"Modified":8236,"laptop":8237,"91":8238,"x_":8239,"dog":8240,"Unique":8241,"simultane":8242,"maintaining":8243,"Normal":8244,"RESULT":8245,"3000":8246,"Op":8247,"a1":8248,"App_":8249,"Subview":8250,"Io":8251,"clus":8252,"curr":8253,"tooltip":8254,"ForeignKey":8255,"I_":8256,"MIN":8257,"gwin":8258,"lst":8259,"repositories":8260,"enters":8261,"wild":8262,"objective":8263,"kinds":8264,"rating":8265,"spl":8266,"oud":8267,"lice":8268,"Seems":8269,"standards":8270,"':'":8271,"ScrollView":8272,"sca":8273,"icket":8274,"behave":8275,"External":8276,"providing":8277,"Effect":8278,"Sur":8279,"Sprite":8280,"rob":8281,"sortable":8282,"IIS7":8283,"effectively":8284,"operators":8285,"Condition":8286,"iseconds":8287,"A_":8288,"Hidden":8289,"paper":8290,"demon":8291,"okay":8292,"iring":8293,"consists":8294,"Persistence":8295,"92":8296,"ECT":8297,"plier":8298,"experiences":8299,"mas":8300,"cos":8301,"GetValue":8302,"Policy":8303,"Partial":8304,"utf8":8305,"Sleep":8306,"gb":8307,"His":8308,"L_":8309,"fund":8310,"('/":8311,"[\\":8312,"craw":8313,"ictures":8314,"MSSQL":8315,"Maps":8316,"XSL":8317,"_back":8318,"indeed":8319,"topt":8320,"translation":8321,"Alternative":8322,"Gl":8323,"ae":8324,"fus":8325,"smoo":8326,"newer":8327,"DEV":8328,"HttpBinding":8329,"Plus":8330,".'":8331,"<-":8332,"fp":8333,"union":8334,"WM_":8335,"falls":8336,"Amazon":8337,"illustr":8338,"sales":8339,"SSRS":8340,"Window1":8341,"Done":8342,"Templates":8343,"annotations":8344,"association":8345,"­­­­­­­­":8346,")'":8347,"sest":8348,"deleg":8349,"unsure":8350,"suggests":8351,"CLI":8352,"CGContext":8353,"bill":8354,"struts":8355,"minor":8356,"station":8357,"interaction":8358,"rolling":8359,"directive":8360,"HTTPS":8361,"leads":8362,"Trigger":8363,"%@":8364,"mal":8365,"trib":8366,"ashion":8367,"redirects":8368,"Makefile":8369,"CUR":8370,"fla":8371,"ctx":8372,"closes":8373,"sorts":8374,"scenarios":8375,"concepts":8376,"demonstr":8377,")).":8378,"bri":8379,"gable":8380,"cha":8381,"endif":8382,"(\"\\":8383,"paging":8384,"comparing":8385,"Def":8386,"chosen":8387,"looping":8388,"produced":8389,"Lets":8390,"collap":8391,"clipboard":8392,"Cruise":8393,"OU":8394,"add_":8395,")),":8396,"utor":8397,"published":8398,"CAT":8399,"CVS":8400,"2001":8401,"imported":8402,"Generator":8403,"snapshot":8404,"#:":8405,"BUT":8406,"plist":8407,"involve":8408,"rotation":8409,"morph":8410,"games":8411,"extended":8412,"addEventListener":8413,"size_t":8414,"ActionScript":8415,"Pract":8416,"uploads":8417,"Castle":8418,"IW":8419,"Sn":8420,"consuming":8421,"thread_":8422,"IFR":8423,"versus":8424,"critical":8425,"Scale":8426,"listview":8427,"++/":8428,"fashion":8429,"Cold":8430,"JSF":8431,"marker":8432,"Returns":8433,"remains":8434,"214":8435,"xhtml":8436,"unhandled":8437,"recognized":8438,"Credentials":8439,"Computer":8440,"elf":8441,"partition":8442,"'.$":8443,"subsequent":8444,"(...":8445,"Light":8446,"mot":8447,"chal":8448,"interpreter":8449,"0x0":8450,"UpdatePanel":8451,"71":8452,"CURL":8453,"Exists":8454,"MySql":8455,"WINDOWS":8456,"EV":8457,"dden":8458,"Interceptor":8459,"VS2005":8460,"(.*)":8461,"123456":8462,"Days":8463,"subset":8464,"constants":8465,"forth":8466,"newly":8467,"viewing":8468,"Netbeans":8469,"InitializeComponent":8470,"duplicates":8471,"crazy":8472,"Invok":8473,"Jan":8474,"myapp":8475,"perspect":8476,"ordering":8477,"]{":8478,"asm":8479,"Err":8480,"UNION":8481,"Algorithm":8482,"ience":8483,"bother":8484,"124":8485,"ItemsSource":8486,"Pair":8487,"110":8488,"Watch":8489,"finds":8490,"MI":8491,"theory":8492,"Whenever":8493,"0x00":8494,"dropped":8495,"AIR":8496,"LIMIT":8497,"]*":8498,"umber":8499,"Applications":8500,"_PRO":8501,"!!!":8502,"NotFoundException":8503,"'));":8504,"8080":8505,"googling":8506,"CharField":8507,"RewriteCond":8508,"Logging":8509,"Duration":8510,"encap":8511,"ReadOnly":8512,"payment":8513,"consume":8514,"resort":8515,"ipes":8516,"defines":8517,"atures":8518,"asio":8519,"tail":8520,"Frameworks":8521,"fastest":8522,"fork":8523,"wanting":8524,"preg_":8525,"Alpha":8526,"closest":8527,"randomly":8528,"circum":8529,"8d":8530,"?!":8531,"ingly":8532,"Lists":8533,"supplied":8534,"ios":8535,"FilterChain":8536,"Hook":8537,"combinations":8538,"Blog":8539,"Pur":8540,"egg":8541,"verbo":8542,"dojo":8543,"iding":8544,"retrieving":8545,"Lower":8546,"Score":8547,"ulty":8548,"Generated":8549,"driven":8550,"UDP":8551,"kb":8552,"san":8553,"tit":8554,"some_":8555,"dlls":8556,".\\":8557,"xp":8558,"ViewState":8559,"Art":8560,"frm":8561,"Orientation":8562,"organization":8563,"ObservableCollection":8564,"Still":8565,"ahead":8566,"hint":8567,"jb":8568,"tend":8569,"MyObject":8570,"ivity":8571,"Actually":8572,"filing":8573,"highlighting":8574,"Diagnostics":8575,"DNS":8576,"SY":8577,"addClass":8578,"essional":8579,"XXX":8580,"gate":8581,"querying":8582,"WebView":8583,"Composite":8584,"Working":8585,"saves":8586,"Linked":8587,"Side":8588,"tn":8589,"htable":8590,"hh":8591,"ISO":8592,"SelectedIndex":8593,"datatype":8594,"Rob":8595,"phr":8596,"snippets":8597,"Mid":8598,"grant":8599,"Dot":8600,"pad":8601,"createElement":8602,"impact":8603,"mysql_fetch":8604,"Valve":8605,"rounded":8606,"mscor":8607,"OSX":8608,"Avail":8609,"pin":8610,"Throw":8611,"izations":8612,"scheduled":8613,"CakePHP":8614,"'-":8615,"sis":8616,"Encrypt":8617,"Models":8618,"XmlDocument":8619,"mistake":8620,"Put":8621,"eq":8622,"forced":8623,"agree":8624,"rolled":8625,"IDis":8626,"substr":8627,"fixes":8628,"HashMap":8629,"_set":8630,"bmp":8631,"berry":8632,"Further":8633,"Zero":8634,"music":8635,"leaves":8636,"asmx":8637,"llib":8638,"Assign":8639,"destructor":8640,"VBScript":8641,"Bot":8642,"Ten":8643,"_at":8644,"ERR":8645,"XmlSerializer":8646,"push_back":8647,"Syntax":8648,"VALUE":8649,"#!":8650,"Lim":8651,"_x":8652,"DB2":8653,"python2":8654,"Remo":8655,"tokens":8656,"PAR":8657,"_size":8658,"']);":8659,"affected":8660,"MD5":8661,"mixed":8662,"bay":8663,"mort":8664,"prev":8665,"awk":8666,"FORE":8667,"belongs":8668,"Updated":8669,"b_":8670,"pause":8671,"i3":8672,"jure":8673,"ooml":8674,"variant":8675,"simulate":8676,"daemon":8677,"literal":8678,"gray":8679,"compli":8680,"gui":8681,"commented":8682,"calculated":8683,"micro":8684,"Assuming":8685,"answered":8686,"Roles":8687,"Dist":8688,"exposed":8689,"sake":8690,"REQUEST":8691,"JDK":8692,"_count":8693,"do_":8694,"goto":8695,"closure":8696,"efficiently":8697,"hicle":8698,"weeks":8699,"/?":8700,"XElement":8701,"lation":8702,"table1":8703,"disappear":8704,"deprec":8705,"connects":8706,"smooth":8707,"\"&":8708,"lg":8709,"Thus":8710,"companies":8711,"anges":8712,"toolkit":8713,"NOTE":8714,"TOP":8715,"Finally":8716,"generics":8717,"simplif":8718,"Axis":8719,"Dig":8720,"staff":8721,"DataTemplate":8722,"managing":8723,"DBMS":8724,"official":8725,"JUnit":8726,"K_":8727,"intranet":8728,"arri":8729,"strap":8730,"Contin":8731,"News":8732,"DTD":8733,"mped":8734,"five":8735,"viewDid":8736,"num_":8737,"portal":8738,"beginner":8739,"applying":8740,"BTW":8741,"mk":8742,"atio":8743,"abor":8744,"Processing":8745,"semant":8746,"indicates":8747,"kw":8748,"thats":8749,"objectAtIndex":8750,"THE":8751,"Hour":8752,"111":8753,"Handling":8754,"downloads":8755,"Opera":8756,"HelloWorld":8757,"bulk":8758,"Executing":8759,"Thought":8760,"standalone":8761,"indexed":8762,"menus":8763,"Essentially":8764,"\"},":8765,"FIN":8766,"TDD":8767,"sudden":8768,")));":8769,"pressing":8770,"stats":8771,"9999999999999999":8772,"Analy":8773,"rible":8774,"Cost":8775,"stringWith":8776,"Writing":8777,"Detect":8778,"flexible":8779,"listening":8780,"roke":8781,"transport":8782,"represented":8783,"MESS":8784,"constantly":8785,"gc":8786,"ID_":8787,"ALSE":8788,"VERT":8789,"leading":8790,"macros":8791,"encapsu":8792,"ued":8793,"unnecessary":8794,"Audit":8795,"annotation":8796,"human":8797,"GMT":8798,"JAR":8799,"fu":8800,"sid":8801,"credit":8802,"locity":8803,"ifiers":8804,"Links":8805,"svc":8806,"Derived":8807,"reproduce":8808,"foc":8809,"invoice":8810,"512":8811,"VST":8812,"jvm":8813,"UIViewController":8814,"offline":8815,"a2":8816,"RETUR":8817,"tics":8818,"secret":8819,"tricks":8820,"pops":8821,"sized":8822,"textboxes":8823,"Extensions":8824,"Messages":8825,"separately":8826,"oomla":8827,"Rate":8828,"dk":8829,"infinite":8830,"strument":8831,"composite":8832,"firstname":8833,"indexPath":8834,"EXIST":8835,"hangs":8836,"modern":8837,"nib":8838,"Box1":8839,"Lines":8840,"Actual":8841,"Related":8842,"treat":8843,"seperate":8844,"Categories":8845,"zing":8846,"Inside":8847,"102":8848,"OpenID":8849,"Supplier":8850,"synchronized":8851,"Integration":8852,"forgot":8853,"urllib":8854,"buy":8855,"Compact":8856,"Passing":8857,"dimensions":8858,"FALSE":8859,"edition":8860,"ONLY":8861,"bling":8862,"Small":8863,"ColdFusion":8864,"perspective":8865,"=/":8866,"Len":8867,"fancy":8868,"pictures":8869,"rewriting":8870,"tier":8871,"OBJ":8872,"!\"":8873,"everywhere":8874,"persistent":8875,"resizing":8876,"uous":8877,"worried":8878,"serious":8879,"Produ":8880,"whereas":8881,"firing":8882,"MSI":8883,"509":8884,"latter":8885,"Recently":8886,"mater":8887,"OOP":8888,"log4net":8889,"JPanel":8890,"ci":8891,"esome":8892,"applic":8893,"DoSomething":8894,"TextView":8895,"referring":8896,"throughout":8897,"Fluent":8898,"Break":8899,";\"":8900,"Cod":8901,"Hide":8902,"_cast":8903,"artz":8904,"pite":8905,"sin":8906,"tood":8907,"applies":8908,"Mozilla":8909,"certainly":8910,"Tech":8911,"Switch":8912,"Expand":8913,"EST":8914,"JFrame":8915,"Rest":8916,"t_":8917,"deb":8918,"addSubview":8919,"importing":8920,"hitting":8921,"cards":8922,"Again":8923,"statistics":8924,"overriding":8925,"=\"\"":8926,"accurate":8927,"presu":8928,"NUM":8929,"coverage":8930,"packets":8931,"Vertical":8932,"'].":8933,"FORM":8934,"xls":8935,"sell":8936,"vey":8937,"responsible":8938,"Attemp":8939,"\"\")":8940,"units":8941,"Controllers":8942,"WHEN":8943,"Synchron":8944,"Lookup":8945,"sqlite3_":8946,"understood":8947,"'#":8948,"*,":8949,"gest":8950,"max_length":8951,"fk":8952,"played":8953,"INTER":8954,"CES":8955,"DbType":8956,"RESTful":8957,")[":8958,"obar":8959,"ongrel":8960,"primit":8961,"EntityManager":8962,"Fox":8963,"lend":8964,"posable":8965,"overall":8966,"ventory":8967,"mediate":8968,"Ideas":8969,"remaining":8970,"-[":8971,".).":8972,"SL":8973,"flick":8974,"Exceptions":8975,"AGE_":8976,"TYPE":8977,"redund":8978,"current_":8979,"containers":8980,"Compile":8981,"Startup":8982,"commons":8983,"Simulator":8984,"WR":8985,"decre":8986,"intercept":8987,"301":8988,"COMM":8989,"Catch":8990,"`.`":8991,"determined":8992,"verified":8993,"doFilter":8994,"intellisense":8995,"104":8996,"Handles":8997,"allocation":8998,"IGHT":8999,"`)":9000,"0x9":9001,"googled":9002,"LinkButton":9003,"Credential":9004,"0001":9005,"skills":9006,"department":9007,"connector":9008,"detected":9009,"Ul":9010,"WOR":9011,"pan":9012,"rwx":9013,"tel":9014,"leaks":9015,"exceed":9016,"spend":9017,"POS":9018,"CED":9019,"XY":9020,"c2":9021,"hon":9022,"v3":9023,"votes":9024,"suite":9025,"999":9026,"blocked":9027,"ByteArray":9028,"employees":9029,"eed":9030,"ease":9031,"doSomething":9032,"trail":9033,"clusion":9034,"STD":9035,"wont":9036,"grouping":9037,"relational":9038,"frustr":9039,"shadow":9040,"NST":9041,"'])":9042,"messy":9043,"GridView1":9044,"Smart":9045,"-----+":9046,"nature":9047,"StartInfo":9048,"?).":9049,"sharing":9050,"imperson":9051,"hostname":9052,"cleaner":9053,"ArgumentException":9054,"shutdown":9055,"BC":9056,"rss":9057,"t0":9058,"id_":9059,"codebase":9060,"overkill":9061,"gines":9062,"streaming":9063,"attempted":9064,"mouseover":9065,"STATUS":9066,"Delegating":9067,"tun":9068,"strlen":9069,"setter":9070,"customize":9071,"deps":9072,"entering":9073,"kinda":9074,"Executor":9075,"representing":9076,"Due":9077,"tho":9078,"clr":9079,"Extender":9080,"verbose":9081,"forget":9082,"exerc":9083,"versa":9084,"occurren":9085,"Certificate":9086,"dash":9087,"useless":9088,"detailed":9089,"recursion":9090,"Relation":9091,"belongs_":9092,"complains":9093,"Nav":9094,"cm":9095,"clever":9096,"Keyboard":9097,"NetBeans":9098,"blur":9099,"Princip":9100,"tick":9101,"unks":9102,"Strateg":9103,"audit":9104,"Endpoint":9105,"Components":9106,"Trim":9107,"zed":9108,"invent":9109,"replication":9110,"ets":9111,"Notice":9112,"OPT_":9113,"Architecture":9114,"AUTO":9115,"puzz":9116,"003":9117,"parti":9118,"320":9119,"UNIX":9120,"ClickOnce":9121,"Iron":9122,"gzip":9123,"sidebar":9124,"ThreadPool":9125,"stays":9126,"NC":9127,"early":9128,"air":9129,"ano":9130,"losing":9131,"feas":9132,"START":9133,"constructors":9134,"mortbay":9135,"ILE":9136,"fb":9137,"fresh":9138,"licen":9139,"UILabel":9140,"Runner":9141,"Flush":9142,"elem":9143,"substit":9144,"shed":9145,"compute":9146,"ANY":9147,"ountries":9148,"compilers":9149,"dimensional":9150,"pane":9151,"(\".":9152,"Fault":9153,"Following":9154,"asax":9155,"assigning":9156,"Three":9157,"guy":9158,"confusion":9159,"LOB":9160,"respective":9161,"################":9162,"Biz":9163,"Cy":9164,"Unt":9165,"derr":9166,"(\"\");":9167,"DataAdapter":9168,"streams":9169,"Special":9170,"notifications":9171,"Available":9172,"cli":9173,"seam":9174,"aded":9175,"formed":9176,"Assume":9177,"Intell":9178,"DependencyProperty":9179,"percentage":9180,"Hyper":9181,"corporate":9182,"YUI":9183,"sand":9184,"anger":9185,"portable":9186,"monitoring":9187,"Catalog":9188,"Winforms":9189,"worse":9190,"stock":9191,"catalog":9192,"limitation":9193,"Resolve":9194,"(\"#":9195,"Addition":9196,"Deser":9197,"Prior":9198,"Branch":9199,"achieved":9200,"synthe":9201,"_error":9202,"sf":9203,"album":9204,"utils":9205,"(\"{":9206,"Dock":9207,"WebResponse":9208,"TextBlock":9209,"ReadLine":9210,"LINE":9211,"releases":9212,"PU":9213,"APP":9214,"Installer":9215,"subscription":9216,"precision":9217,"Similar":9218,"consumer":9219,"IDENTITY":9220,"approxim":9221,"_for":9222,"s1":9223,"revert":9224,"quit":9225,"Serialize":9226,"Notify":9227,"reported":9228,"Symbo":9229,"broad":9230,"CAST":9231,"doubt":9232,"Groovy":9233,"NA":9234,"QA":9235,"terday":9236,"repeater":9237,"opinions":9238,"wikipedia":9239,"beha":9240,"doz":9241,"grade":9242,"GetResponse":9243,"indexing":9244,"Bug":9245,"0x0000":9246,"capabilities":9247,"assumed":9248,"Must":9249,"OL":9250,"stderr":9251,"WebClient":9252,"Margin":9253,"dylib":9254,"!\");":9255,"Reason":9256,"angles":9257,"Series":9258,"linear":9259,"matched":9260,"committed":9261,"Bounds":9262,"Nib":9263,"_3":9264,"erry":9265,"commits":9266,"stumped":9267,"brand":9268,"filtered":9269,"risk":9270,"guidance":9271,"CURLOPT_":9272,"fing":9273,"figuring":9274,"Assoc":9275,"Additional":9276,"TODO":9277,"pulling":9278,"GT":9279,"_start":9280,"rames":9281,"Raise":9282,"#!/":9283,"walk":9284,"delimit":9285,"Debugging":9286,"aggregate":9287,"Protected":9288,"3f":9289,"Story":9290,"bm":9291,"mount":9292,"aps":9293,"spam":9294,"medium":9295,"Lua":9296,"W3":9297,"|\\":9298,"...]":9299,"positive":9300,"Department":9301,"Wiki":9302,"convenient":9303,"Know":9304,"SMS":9305,"REFER":9306,"ITE":9307,"coordinate":9308,"conflict":9309,"Usage":9310,"CI":9311,"_html":9312,"held":9313,"players":9314,"databinding":9315,"ultim":9316,"specification":9317,"],[":9318,"slides":9319,"Finding":9320,"_number":9321,"scre":9322,"ulated":9323,"Struts":9324,"linker":9325,"Recur":9326,"dragging":9327,"surface":9328,"NEW":9329,"BR":9330,"_controller":9331,"wo":9332,"rew":9333,"setopt":9334,"forever":9335,"TimeSpan":9336,"limitations":9337,"UND":9338,"authorized":9339,"xslt":9340,",-":9341,"Bro":9342,"mime":9343,"inet":9344,"haus":9345,"Stat":9346,"overload":9347,"_TEXT":9348,"minimize":9349,"Repeater":9350,"Bla":9351,"Jsp":9352,"fatal":9353,"uninstall":9354,"UTC":9355,"Shape":9356,"Records":9357,"combined":9358,"alphabet":9359,"Speed":9360,"subdomain":9361,"ASPX":9362,"\".\"":9363,"marily":9364,"english":9365,"cfg":9366,"robust":9367,"fundament":9368,"Wind":9369,"nhibernate":9370,"XMLHttpRequest":9371,"OutOf":9372,"Demo":9373,"Tenant":9374,"lated":9375,"trict":9376,"Things":9377,"Buttons":9378,"Transport":9379,"sequences":9380,"CRUD":9381,"phase":9382,"OPT":9383,"material":9384,"%%":9385,"SIG":9386,"(\"@":9387,"tax":9388,"everytime":9389,"Appro":9390,"INTE":9391,"\"#":9392,"'&":9393,"4000":9394,"nic":9395,"sIFR":9396,"willing":9397,"overwrite":9398,"NSNumber":9399,"remoting":9400,"PEG":9401,"CASE":9402,"Invoker":9403,"deprecated":9404,"FB":9405,"promp":9406,"Prop":9407,"Mysql":9408,"versal":9409,"ACTION":9410,"MET":9411,"Vi":9412,"onload":9413,"asdf":9414,"dealloc":9415,"optimal":9416,"sentence":9417,"reached":9418,"Alias":9419,"advise":9420,"Ign":9421,"anc":9422,"codehaus":9423,"instant":9424,"SqlServer":9425,"purchase":9426,"VIE":9427,"Wiz":9428,"myObject":9429,"postgres":9430,"WA":9431,"rebuild":9432,"ifying":9433,"DTO":9434,"Rh":9435,"_db":9436,"ric":9437,"firstName":9438,"Apparently":9439,"lastname":9440,"silly":9441,"dg":9442,"sz":9443,"printStackTrace":9444,"Intel":9445,"AL_":9446,"Sequence":9447,"Limit":9448,")...":9449,"DF":9450,"pf":9451,"seq":9452,"forge":9453,"Inno":9454,"viewed":9455,"positions":9456,"converter":9457,"polymorph":9458,"Suggestions":9459,"LN":9460,"pul":9461,"NSDictionary":9462,"References":9463,"WMI":9464,"Geo":9465,"Ari":9466,"C1":9467,"JPEG":9468,"_by":9469,"alternate":9470,"glass":9471,"Wordpress":9472,"parency":9473,"Lic":9474,"engines":9475,"userName":9476,"Visibility":9477,"iterating":9478,"holding":9479,"Relative":9480,"Normally":9481,"History":9482,"Tex":9483,"Tod":9484,"Wik":9485,"Zone":9486,"ba":9487,"reh":9488,"URE_":9489,"Trust":9490,"aligned":9491,"Prototype":9492,"mod_rewrite":9493,"Presenter":9494,":@":9495,"[^":9496,"hpp":9497,"sudo":9498,"obfus":9499,"ured":9500,"CreateInstance":9501,"TRY":9502,"radius":9503,"ars":9504,"CreateObject":9505,"preferences":9506,"ExecuteReader":9507,"dson":9508,"authorization":9509,"brackets":9510,"Tasks":9511,"mir":9512,"vars":9513,"timezone":9514,"remotely":9515,"Plan":9516,"../../":9517,"-------+":9518,"nearly":9519,"expert":9520,"\"\");":9521,"QT":9522,"mf":9523,"Ind":9524,"appengine":9525,"usercontrol":9526,"RESS":9527,"VisualStudio":9528,"CLAS":9529,"Turn":9530,"appe":9531,"INDEX":9532,"wordpress":9533,"CONVERT":9534,"([^":9535,"modifications":9536,"WARN":9537,"Meas":9538,"Sure":9539,"blob":9540,"rare":9541,"Staff":9542,"Poly":9543,"Starting":9544,"attack":9545,"}/{":9546,"Bottom":9547,"LM":9548,"_0":9549,"quantity":9550,"outube":9551,"cake":9552,"ivot":9553,"ToMany":9554,"MOSS":9555,"guidelines":9556,"aby":9557,"primarily":9558,"Apply":9559,"autorelease":9560,"firewall":9561,"charts":9562,"MAP":9563,"bor":9564,"wave":9565,"street":9566,"needing":9567,"Accessing":9568,"concerns":9569,"OperationException":9570,"Require":9571,"_of_":9572,"msi":9573,"alive":9574,"weak":9575,"Week":9576,"presses":9577,"White":9578,"ForKey":9579,"architect":9580,"ModelState":9581,"viewDidLoad":9582,"'}":9583,"Oh":9584,"ram":9585,"()).":9586,"artif":9587,"OrEmpty":9588,"Visitor":9589,"Editing":9590,"grouped":9591,"repeating":9592,"circumst":9593,"_Get":9594,"xpath":9595,"newline":9596,"Feature":9597,"Today":9598,"5c":9599,"candid":9600,"adig":9601,"weblogic":9602,"interop":9603,"AST":9604,"DIST":9605,"hiding":9606,"terminate":9607,"CruiseControl":9608,"INTEGER":9609,"Lisp":9610,"MATL":9611,"Push":9612,"insp":9613,"stretch":9614,"proof":9615,"FullName":9616,"Difference":9617,"occasionally":9618,"MATLAB":9619,"recipient":9620,"MSVC":9621,"ENV":9622,"presented":9623,"FindControl":9624,"milliseconds":9625,"wpf":9626,"Cross":9627,"incorrectly":9628,"chunks":9629,"acceler":9630,"camp":9631,"ordion":9632,"Disable":9633,"Stock":9634,"Scanner":9635,":]":9636,"Hard":9637,"VE":9638,"ufact":9639,"exc":9640,"hyperlink":9641,"Live":9642,"_p":9643,"pit":9644,"sprite":9645,"++){":9646,"FileInfo":9647,"topics":9648,"latitude":9649,"Decisions":9650,"ELSE":9651,"belongs_to":9652,"replicate":9653,"foobar":9654,"className":9655,"Table1":9656,"TabBar":9657,"Persistent":9658,"Optim":9659,"Alt":9660,"b2":9661,"ici":9662,"abs":9663,"ToInt32":9664,"Organ":9665,"timed":9666,"Members":9667,"Books":9668,"Scheme":9669,"aaaa":9670,"accordingly":9671,"recursively":9672,"r1r1":9673,"limits":9674,"guarantee":9675,"phrase":9676,")+":9677,"GDI":9678,"HRESULT":9679,"wa":9680,"neat":9681,"awesome":9682,"PARTNER":9683,"simultaneously":9684,"'=>":9685,"ents":9686,"Whats":9687,"Nullable":9688,"highlighted":9689,"CX":9690,"cube":9691,"lng":9692,"s2":9693,"amaz":9694,"dies":9695,"iration":9696,"HashCode":9697,"trees":9698,"Schedule":9699,"Bits":9700,"WW":9701,"{:":9702,"QueryString":9703,"market":9704,"Img":9705,"Okay":9706,"Inherit":9707,"extending":9708,"UIScrollView":9709,"supporting":9710,"Employ":9711,"\"{":9712,"PE_":9713,"bled":9714,"structured":9715,"8859":9716,"jq":9717,"iful":9718,"Extra":9719,"Filename":9720,"Entries":9721,"supply":9722,"parents":9723,"160":9724,"md5":9725,"detection":9726,"delegates":9727,"cv":9728,"enforce":9729,"subprocess":9730,"20090":9731,"64bit":9732,"AtIndexPath":9733,"Wikipedia":9734,"Ticket":9735,"gree":9736,"tl":9737,"tex":9738,"profiler":9739,"viol":9740,"corners":9741,"dedicated":9742,"Problems":9743,"trusted":9744,"Wizard":9745,"knew":9746,"getName":9747,"distribute":9748,"Animal":9749,"ROOT":9750,"last_":9751,"declaring":9752,"upgrading":9753,"Variables":9754,"enumeration":9755,"CrystalDecisions":9756,"kwargs":9757,"2F":9758,"Cla":9759,"Very":9760,"pd":9761,"restr":9762,"submission":9763,"lightweight":9764,"StreamWriter":9765,"arm":9766,"Street":9767,"ridge":9768,"providers":9769,"SelectedItem":9770,"students":9771,"IsNullOrEmpty":9772,"Thoughts":9773,"_item":9774,"bi":9775,"tk":9776,"wan":9777,"----+--------":9778,"grate":9779,"INST":9780,"RETURN":9781,"conc":9782,"acqu":9783,"grails":9784,"Decl":9785,"UIWebView":9786,"LE_":9787,"phan":9788,"Programm":9789,"feasible":9790,"Mill":9791,"mq":9792,"tored":9793,"otify":9794,"Extract":9795,"race":9796,"phi":9797,"Visit":9798,"turning":9799,"strategies":9800,"yellow":9801,"privileges":9802,"EXISTS":9803,"Priority":9804,"aled":9805,"Thumb":9806,"endregion":9807,"rollback":9808,"ignoring":9809,"akes":9810,"mono":9811,"filling":9812,"ConfigurationManager":9813,"draggable":9814,"TagName":9815,"Drive":9816,"DIS":9817,"bob":9818,"setTimeout":9819,"immutable":9820,"WebPart":9821,"ProcessRequest":9822,"Secure":9823,"descriptor":9824,"Cent":9825,"SN":9826,"XCode":9827,"gment":9828,"mongrel":9829,"zA":9830,"erce":9831,"ros":9832,"adoc":9833,"intention":9834,"xmlDoc":9835,"brain":9836,"SERV":9837,"frequency":9838,"natural":9839,"Blend":9840,"Hey":9841,"Tun":9842,"nable":9843,"erces":9844,"delt":9845,"exclu":9846,"Whe":9847,"Commit":9848,"Attr":9849,"auto_":9850,"clarification":9851,"organize":9852,"continuous":9853,"curl_setopt":9854,"simplify":9855,"VIEW":9856,"232":9857,"Vol":9858,"cin":9859,"waste":9860,"Someone":9861,"DES":9862,"Defaults":9863,"graphical":9864,"Checking":9865,"TortoiseSVN":9866,"/{":9867,"fol":9868,"comfor":9869,"addChild":9870,"izable":9871,"ER_":9872,"SetValue":9873,"Enc":9874,"offers":9875,"avigation":9876,"=~":9877,"Making":9878,"*(":9879,"Dict":9880,"UIN":9881,"MyTable":9882,"disappears":9883,"grammar":9884,"103":9885,"choosing":9886,"Ker":9887,"}\\":9888,"..\\":9889,"compreh":9890,"col1":9891,"INCT":9892,"SVG":9893,"UNI":9894,"DISTINCT":9895,"Bill":9896,"_map":9897,"cvs":9898,"rpc":9899,"activer":9900,"submitting":9901,"merging":9902,"ACCESS":9903,"112":9904,"_content":9905,"_info":9906,"_SERVER":9907,"demand":9908,"prog":9909,"actionscript":9910,"visions":9911,"receiver":9912,"declarations":9913,"Extent":9914,"prepared":9915,"CGRectMake":9916,"brief":9917,"WI":9918,"aign":9919,"utiful":9920,"exchange":9921,"002":9922,"----+":9923,"ORA":9924,"brings":9925,"401":9926,"exported":9927,"SWT":9928,"Yahoo":9929,"ai":9930,"Inject":9931,"Clar":9932,"Compat":9933,"connectionString":9934,"launched":9935,"Utility":9936,"Solaris":9937,"Implementation":9938,"Camera":9939,"mxml":9940,"oh":9941,"sBy":9942,"wcf":9943,"//...":9944,"disadvantages":9945,"prag":9946,"NSDate":9947,"db_":9948,"SomeClass":9949,"highest":9950,"Versions":9951,"Times":9952,"Converting":9953,"restricted":9954,"gradient":9955,"Rhino":9956,"/:":9957,"Hu":9958,"OM":9959,"cust":9960,"sect":9961,"FileSystem":9962,"requiring":9963,"ResultSet":9964,"(((":9965,"scrollView":9966,"HOME":9967,"browsing":9968,"tied":9969,"fopen":9970,"elt":9971,"violation":9972,"Aug":9973,"IoC":9974,"WORK":9975,"LAN":9976,"PORT":9977,"lating":9978,"yahoo":9979,"assumption":9980,"concurrency":9981,"artist":9982,"MyService":9983,"Board":9984,"NativeMethodAccessorImpl":9985,"CEDURE":9986,"partially":9987,"REFEREN":9988,"During":9989,"GH":9990,"Y_":9991,"oct":9992,"fake":9993,"bucket":9994,"thematic":9995,"GetCurrent":9996,"Mercurial":9997,"precise":9998,"Updating":9999,"CDATA":10000,"Raw":10001,"ambig":10002,"IsValid":10003,"----------":10004,"panels":10005,"Binder":10006,"dropdownlist":10007,"%'":10008,"Dlg":10009,"EAR":10010,"_page":10011,"sides":10012,"assets":10013,"contr":10014,"125":10015,"Gant":10016,"SHO":10017,"Tel":10018,"crypto":10019,"Incre":10020,"agers":10021,"compact":10022,"impression":10023,"skin":10024,"Contacts":10025,"_SIZE":10026,"Smith":10027,"subscribe":10028,"EB":10029,"Sender":10030,"vary":10031,"base64":10032,"ithub":10033,"Parsing":10034,"Logic":10035,"caption":10036,"invoking":10037,"Pred":10038,"Yet":10039,"kick":10040,"ecord":10041,"individually":10042,"balance":10043,"Cour":10044,"Pal":10045,"Round":10046,"urally":10047,"emulator":10048,"dataType":10049,"curve":10050,"test1":10051,"bars":10052,"fixing":10053,"preference":10054,"jars":10055,"suddenly":10056,"700":10057,"unload":10058,"ressing":10059,"intersection":10060,"($(":10061,"insertion":10062,"WordPress":10063,"difficulty":10064,"Capture":10065,"Debugger":10066,"massive":10067,"UINavigation":10068,"+)":10069,"ung":10070,"logout":10071,"ATED":10072,"deletes":10073,"CRM":10074,"ificates":10075,"InvalidOperationException":10076,"tricky":10077,"Il":10078,"_test":10079,"tack":10080,"water":10081,"Who":10082,"Percent":10083,"ounce":10084,"allocator":10085,"bookmark":10086,"removes":10087,"MYSQL":10088,"Alternatively":10089,"EOF":10090,"Pod":10091,"lication":10092,"tc":10093,"Inc":10094,"sphere":10095,"john":10096,"Postgres":10097,"VERS":10098,"%@\",":10099,"behaves":10100,"'^":10101,"sitem":10102,"recreate":10103,"edu":10104,"extensive":10105,"interrupt":10106,"callbacks":10107,"despite":10108,"secondary":10109,"IIS6":10110,"Overrid":10111,"optimized":10112,"initWithFrame":10113,"Migr":10114,"P_":10115,"Such":10116,"iry":10117,"roughly":10118,"SSH":10119,"binaries":10120,"Within":10121,"appearing":10122,"RegEx":10123,"ComponentModel":10124,"translated":10125,"collapse":10126,"WSS":10127,"fusion":10128,"ingu":10129,"UIButton":10130,"FileDialog":10131,"formatter":10132,"CommandType":10133,"ictionaries":10134,"associate":10135,"firebug":10136,"ascii":10137,"Authorization":10138,"MetaClass":10139,"conventions":10140,"Advanced":10141,"hg":10142,"jasper":10143,"viewstate":10144,"structs":10145,"Alloc":10146,"amounts":10147,"SA":10148,"c3":10149,"narrow":10150,"edges":10151,"chose":10152,"forcing":10153,"date_":10154,"Selenium":10155,"ARG":10156,"wondered":10157,"maxim":10158,"replies":10159,"introduce":10160,"5f":10161,"GPL":10162,"_class":10163,"erase":10164,"Exist":10165,"...}":10166,"dispose":10167,"longitude":10168,"0m":10169,"Joomla":10170,"NT_":10171,"ubble":10172,"viewController":10173,"OrDefault":10174,"Actionscript":10175,"Logon":10176,"drivers":10177,"scene":10178,"Presentation":10179,"decoration":10180,"clusive":10181,"compliant":10182,"Principal":10183,"comfortable":10184,"456":10185,"Nor":10186,"nty":10187,"10g":10188,"GL_TEXT":10189,"constructed":10190,"PROCEDURE":10191,"enumerate":10192,"Choice":10193,"mysqli":10194,"LNK":10195,"-=":10196,"Css":10197,"Jul":10198,"SIZE":10199,"wc":10200,"isol":10201,"value1":10202,"hell":10203,"solves":10204,"handy":10205,"saf":10206,"refers":10207,"Application_":10208,"stdin":10209,"merged":10210,"cleanup":10211,"polling":10212,"Talk":10213,"Xaml":10214,"dp":10215,"fra":10216,"gm":10217,"pig":10218,"xl":10219,"myClass":10220,"switched":10221,"activated":10222,"eliminate":10223,"IDisposable":10224,"adigm":10225,"hwnd":10226,"zes":10227,"aside":10228,"rounding":10229,"20b":10230,"20px":10231,"MSIL":10232,"HTTP_":10233,"graphs":10234,"Specific":10235,"agnostic":10236,"buffers":10237,"=%":10238,"LA":10239,"thinks":10240,"reboot":10241,"compar":10242,"plenty":10243,"continues":10244,"getElementsBy":10245,"harder":10246,"WndProc":10247,"traditional":10248,"Cart":10249,"PN":10250,"idio":10251,"whats":10252,"DataBound":10253,"expired":10254,"Subsonic":10255,"reasonably":10256,"lenge":10257,"IBM":10258,"redundant":10259,"Strategy":10260,"activerecord":10261,"PG":10262,"XDocument":10263,"reject":10264,"apolog":10265,"quad":10266,"SQLServer":10267,"CGImage":10268,"Examples":10269,")];":10270,"MF":10271,"]).":10272,"rw":10273,"str_":10274,"()\"":10275,"animations":10276,"SelectedValue":10277,"visited":10278,"MAC":10279,"Tx":10280,"getter":10281,"asets":10282,"preserve":10283,"Quartz":10284,"numberOf":10285,"Encode":10286,"converts":10287,"accident":10288,"mappings":10289,"PLIC":10290,"Permissions":10291,"targets":10292,"Enumerator":10293,"Additionally":10294,"1B":10295,"480":10296,"Qual":10297,"junit":10298,"ranges":10299,"peer":10300,"variety":10301,"lastName":10302,"Commands":10303,"24130":10304,"Remoting":10305,"periodically":10306,"circular":10307,"Vertex":10308,"deserialize":10309,"cpy":10310,"ked":10311,"nu":10312,"error_":10313,"porting":10314,"GetHashCode":10315,"ITEM":10316,"removeClass":10317,"SOC":10318,"Imagine":10319,"fadeIn":10320,"configurations":10321,"Intelli":10322,"inguish":10323,"aver":10324,"delimited":10325,"tray":10326,"Erlang":10327,"homepage":10328,"transformation":10329,"Smtp":10330,"CultureInfo":10331,"WaitFor":10332,"shortcuts":10333,"guaranteed":10334,"PlaceHolder":10335,"focused":10336,"_A":10337,"b1":10338,"qt":10339,"workbook":10340,"WebForms":10341,"NSData":10342,"indexOf":10343,"responseText":10344,"capable":10345,"joined":10346,"numerous":10347,"predicate":10348,"RoutedEventArgs":10349,"sandbox":10350,"364":10351,"<--":10352,"x1":10353,"oup":10354,"six":10355,"inder":10356,"dated":10357,")){":10358,"NonQuery":10359,"StaticResource":10360,"Correct":10361,"Friend":10362,"3a":10363,"sees":10364,"profiling":10365,"getInstance":10366,"Delet":10367,"pushed":10368,"editors":10369,"respectively":10370,"orientation":10371,"clustered":10372,"(%":10373,"basics":10374,"slowly":10375,"Privile":10376,"Arial":10377,"Bul":10378,"iis":10379,"reve":10380,"enario":10381,"abstr":10382,"overlap":10383,"counts":10384,"RowAtIndexPath":10385,"Base64":10386,"cpu":10387,"Expressions":10388,"_FILES":10389,"metric":10390,"favorite":10391,".?":10392,".]":10393,">,":10394,"Easy":10395,"Front":10396,"UML":10397,"_R":10398,"_once":10399,"ratio":10400,"enh":10401,"inefficient":10402,"Encoder":10403,"messaging":10404,"increasing":10405,"Prevent":10406,"FOO":10407,"flip":10408,"invisible":10409,"FireFox":10410,"OPEN":10411,"ometry":10412,"aspnet_":10413,"Dump":10414,"Coordin":10415,"RECT":10416,"graphy":10417,"fetched":10418,"upgraded":10419,"conflicts":10420,"circumstances":10421,"JAV":10422,"seek":10423,"nonatomic":10424,"lnk":10425,"AFEID":10426,"Retrieve":10427,"folks":10428,"/\\":10429,"Large":10430,"salt":10431,"van":10432,"ained":10433,"vertically":10434,"Printer":10435,"vectors":10436,"publishing":10437,"pipeline":10438,"OUTER":10439,"surprised":10440,")->":10441,"Den":10442,"VSS":10443,"[(":10444,"Configure":10445,"105":10446,"transparency":10447,"separator":10448,"evaluated":10449,"GL_TEXTURE_":10450,"f2":10451,"--+":10452,"userId":10453,"lave":10454,"WebMethod":10455,"STAMP":10456,"spacing":10457,"automation":10458,"positioned":10459,"Previous":10460,"Closed":10461,"LastError":10462,"overridden":10463,"analyze":10464,"cmp":10465,"urer":10466,"intu":10467,"shr":10468,"Prof":10469,"108":10470,"Ship":10471,"messing":10472,"treeview":10473,"Traceback":10474,"cloud":10475,"DoWork":10476,"ObjectDataSource":10477,"NSInteger":10478,"invocation":10479,"OLEDB":10480,"TI":10481,"va":10482,"runner":10483,"...).":10484,"INotify":10485,"httpd":10486,"msbuild":10487,"STATE":10488,"lined":10489,"Doesn":10490,"Threads":10491,"migrating":10492,"evt":10493,"DllImport":10494,"MESSAGE":10495,"mably":10496,"rer":10497,"lem":10498,"icator":10499,"setters":10500,"boundary":10501,"safely":10502,"confirmation":10503,"SubmitChanges":10504,"Windsor":10505,"Illegal":10506,"Fam":10507,"Lot":10508,"_form":10509,"wav":10510,"filenames":10511,"datepicker":10512,"LEN":10513,"StartDate":10514,"Prep":10515,"REFERENCES":10516,"140":10517,"constr":10518,"ETIME":10519,"Dom":10520,"image_":10521,"NSObject":10522,"markers":10523,"regexp":10524,"Routing":10525,"powerful":10526,"Employees":10527,"eax":10528,"staging":10529,"Numbers":10530,"------+--------":10531,"preced":10532,"VERSION":10533,";);":10534,"IAL":10535,"]\"":10536,"nest":10537,"shipping":10538,"DataMember":10539,"IDictionary":10540,"0x30":10541,"ApplicationFilterChain":10542,"ProductID":10543,"Scenario":10544,"teams":10545,"LIST":10546,"COLUM":10547,"tuple":10548,"\"[":10549,"Bon":10550,"bf":10551,"countries":10552,"dumb":10553,"hate":10554,"vague":10555,"silent":10556,"array_":10557,"XmlReader":10558,"ANSI":10559,"Ear":10560,"F5":10561,"_base":10562,"iso":10563,"unsafe":10564,"licity":10565,"querystring":10566,"Points":10567,"172":10568,"Posts":10569,"_PATH":10570,"semi":10571,"indicator":10572,"S3":10573,"reserved":10574,"('.":10575,"responding":10576,"Shop":10577,"driving":10578,"encodings":10579,"Cookies":10580,"primitive":10581,"Jon":10582,"Scr":10583,"_method":10584,"ga":10585,"trac":10586,"table2":10587,"ToArray":10588,"timing":10589,"HttpApplication":10590,"faced":10591,":(?":10592,"ExecuteNonQuery":10593,"Administrator":10594,"escaped":10595,"WND":10596,"J2ME":10597,"686":10598,"MIME":10599,"Oc":10600,"sad":10601,"}).":10602,"loon":10603,"--->":10604,"rier":10605,"States":10606,"logy":10607,"TableName":10608,"IBAction":10609,"Subscription":10610,"Lambda":10611,"_field":10612,"arper":10613,"idle":10614,"intend":10615,"ords":10616,"('#":10617,"GetAll":10618,"plex":10619,"yourself":10620,"movement":10621,"21e":10622,"yesterday":10623,"Implementing":10624,"Destination":10625,"bandwidth":10626,"synthesize":10627,"DRO":10628,"JLabel":10629,"OSE":10630,"Src":10631,"ejb":10632,"Think":10633,"passenger":10634,"ANCE":10635,"Started":10636,"MainWindow":10637,"..)":10638,"UIApplication":10639,"Separ":10640,"vertex":10641,"Numeric":10642,"param1":10643,"TreeNode":10644,"slashes":10645,"RadioButton":10646,"Preferably":10647,"pitfalls":10648,"Hierarch":10649,"alect":10650,"ech":10651,"profiles":10652,"()));":10653,"helped":10654,"pointment":10655,"layouts":10656,"covered":10657,"Fixed":10658,"busy":10659,"STDERR":10660,"BACK":10661,"PDO":10662,"bird":10663,"ester":10664,"ada":10665,"Constra":10666,"GetBytes":10667,"Compiled":10668,"ServiceProvider":10669,"grey":10670,"ENT_":10671,"helpers":10672,"fetching":10673,"stringWithFormat":10674,"applicable":10675,"%.":10676,"?.":10677,"RL":10678,"uck":10679,"wer":10680,"ora":10681,"exits":10682,"upport":10683,"els":10684,"=\"+":10685,"Disposition":10686,"Addresses":10687,"RoR":10688,"picked":10689,"HtmlTextWriter":10690,"izontally":10691,"active_record":10692,"titles":10693,"]))":10694,"ffold":10695,"seed":10696,"mpeg":10697,"setAttribute":10698,"venue":10699,"Class1":10700,"Classic":10701,"xmlhttp":10702,"existence":10703,"ibm":10704,"Otherwise":10705,"excellent":10706,"heavily":10707,"Retrie":10708,"finger":10709,"TSQL":10710,"TIA":10711,"Used":10712,"advert":10713,"promis":10714,"tors":10715,"loadClass":10716,"subquery":10717,"subclasses":10718,"specially":10719,"Seam":10720,"SqlDataReader":10721,"positioning":10722,"attachments":10723,"appropriately":10724,"Integrated":10725,"Removing":10726,"Mask":10727,"lParam":10728,"rv":10729,"undo":10730,"posite":10731,"Chris":10732,"Python26":10733,"Functions":10734,"Powershell":10735,"MetaData":10736,"i386":10737,"pulled":10738,"/)":10739,"CAL":10740,"DL":10741,"PLE":10742,"bur":10743,"x2":10744,"chas":10745,"codebehind":10746,"validating":10747,"Comb":10748,"[],":10749,"simplicity":10750,"Lazy":10751,"Hashtable":10752,"SUC":10753,"synchronize":10754,"Constants":10755,"experimenting":10756,"2px":10757,"Ben":10758,"Bus":10759,"dx":10760,"}{":10761,"trap":10762,"notepad":10763,"derive":10764,"Doing":10765,"operate":10766,"involving":10767,"populating":10768,"RedirectTo":10769,"determining":10770,"Slide":10771,"active_support":10772,"<!--":10773,"B1":10774,"_title":10775,"bare":10776,"d1":10777,"pthread_":10778,"robot":10779,"chrome":10780,"pet":10781,"file1":10782,"intensive":10783,"checksum":10784,"Upper":10785,"expects":10786,"BYTE":10787,"Expected":10788,"resized":10789,"freed":10790,"paren":10791,"Star":10792,"statically":10793,"Party":10794,"Dimension":10795,"AcceptVerbs":10796,"indicating":10797,"MembershipProvider":10798,"FY":10799,"Packet":10800,"Tpo":10801,"rhs":10802,"chk":10803,"usability":10804,"intent":10805,"Cop":10806,"32bit":10807,"presence":10808,"real_":10809,"breakpoints":10810,"parsers":10811,"delta":10812,"\"...":10813,",,":10814,"github":10815,"unused":10816,"notified":10817,"worksheet":10818,"Deli":10819,"Arr":10820,"counting":10821,"Clarification":10822,";/":10823,"Sent":10824,"_on":10825,"degree":10826,"loose":10827,"Anything":10828,"ObjectContext":10829,"imply":10830,"Uni":10831,"Unity":10832,"Connector":10833,"social":10834,"CommandText":10835,"bigint":10836,"AUTH":10837,"BIT":10838,"TBL":10839,"thin":10840,"ilst":10841,"divide":10842,"validates":10843,"imports":10844,"monkey":10845,"Tempor":10846,"BindingFlags":10847,"AGS":10848,"1304":10849,"ldap":10850,"lio":10851,"urname":10852,"Forum":10853,"Toggle":10854,"showed":10855,"mismatch":10856,"torial":10857,"trait":10858,"speak":10859,"DATETIME":10860,"Sorting":10861,"Launcher":10862,"Caused":10863,"MON":10864,"Patient":10865,"bund":10866,"cascade":10867,"clas":10868,"backgroundColor":10869,"OrderBy":10870,"\\\\\\\\":10871,"distinguish":10872,"directions":10873,"HOST":10874,"RTF":10875,"aspects":10876,"FOREIGN":10877,"Until":10878,"8e":10879,"Fatal":10880,"HH":10881,"Later":10882,"Mut":10883,"TT":10884,"ffix":10885,"h1":10886,"intermediate":10887,"test2":10888,"spin":10889,"OnClick":10890,"ENTER":10891,"slash":10892,"lifecycle":10893,"multil":10894,"serializer":10895,"QUER":10896,",[":10897,"FUN":10898,"SID":10899,"_view":10900,"scop":10901,"erb":10902,"Datab":10903,"redraw":10904,"UITextField":10905,"TestCase":10906,"explained":10907,"Words":10908,"launching":10909,"horizontally":10910,"Dao":10911,"XYZ":10912,"InnoDB":10913,"#/":10914,"Low":10915,"PID":10916,"_N":10917,"cam":10918,"vista":10919,"shif":10920,"Concrete":10921,"setText":10922,"DataType":10923,"109":10924,"communic":10925,"CategoryID":10926,"Rules":10927,"Nested":10928,"pat":10929,"ubuntu":10930,"col2":10931,"py2":10932,"Currency":10933,"heading":10934,"SP2":10935,"5521e":10936,"Booked":10937,"692f":10938,"-----+--------":10939,"Pipeline":10940,"bea5521e":10941,"exercise":10942,"692fbea5521e":10943,"692fbea5521e1304":10944,"Either":10945,"Tiny":10946,"uff":10947,"atile":10948,"outline":10949,"resx":10950,"mini":10951,"installs":10952,"HttpVerbs":10953,"CGPoint":10954,"ShowDialog":10955,"pushing":10956,"TeX":10957,"restrictions":10958,"Diff":10959,"pagination":10960,"Calculate":10961,"Beta":10962,"Hours":10963,"LC":10964,"arith":10965,"userID":10966,"opposite":10967,"value2":10968,"velope":10969,"pasted":10970,"fills":10971,"nal":10972,"oret":10973,"tid":10974,"winform":10975,"newInstance":10976,"ONG":10977,"Widgets":10978,"collision":10979,"Verify":10980,"treated":10981,"introduced":10982,"'>":10983,"ZIP":10984,"_n":10985,"sal":10986,"ython":10987,"ford":10988,"serif":10989,"themes":10990,"phones":10991,"Ids":10992,"atory":10993,"IELD":10994,"sitting":10995,"IndexPath":10996,"mature":10997,"preferable":10998,"osgi":10999,"Joe":11000,"MouseEvent":11001,"scaling":11002,"Deserialize":11003,"pragma":11004,"GR":11005,"xerces":11006,"ypes":11007,"¯¯":11008,"this_":11009,"confi":11010,"mails":11011,"ribly":11012,"datasets":11013,"trial":11014,"backing":11015,"Mean":11016,"SessionFactory":11017,"AsyncResult":11018,"escape_string":11019,"Term":11020,"challenge":11021,"240":11022,"Sending":11023,"Wed":11024,"Ware":11025,"rap":11026,"ErrorMessage":11027,"Absolute":11028,"publisher":11029,"trailing":11030,"Liter":11031,"c0":11032,"j2":11033,"ky":11034,"cott":11035,"idx":11036,"serves":11037,"MyProject":11038,":///":11039,"relations":11040,"dragged":11041,"'')":11042,"_a":11043,"_iterator":11044,"stum":11045,"ades":11046,"opard":11047,"backwards":11048,"completes":11049,"styling":11050,"DOS":11051,"JAXB":11052,"Arguments":11053,"metrics":11054,"Caching":11055,"urllib2":11056,"obfusc":11057,"*\"":11058,"danger":11059,"izes":11060,"raid":11061,"Resize":11062,"capability":11063,"Roll":11064,"explains":11065,"troublesho":11066,"finishes":11067,"spawn":11068,"Communication":11069,"Bash":11070,"PP":11071,"cls":11072,"makefile":11073,"Quantity":11074,"STA":11075,"sqlserver":11076,"arg1":11077,"Registration":11078,"osition":11079,"SOUR":11080,"Styles":11081,"describes":11082,"touched":11083,"Rendering":11084,"susp":11085,"Analysis":11086,"JNI":11087,"sanit":11088,"_num":11089,"_width":11090,"e1":11091,"mic":11092,"slot":11093,"ley":11094,"idence":11095,"quis":11096,"Shift":11097,"HttpHandler":11098,"redirecting":11099,"actives":11100,"Variant":11101,"datagridview":11102,"Comparer":11103,"Relationship":11104,"MC":11105,"gap":11106,"wed":11107,"Conversion":11108,"Listen":11109,"accessor":11110,"Env":11111,"URLRequest":11112,"suppress":11113,"Outer":11114,"4096":11115,"administr":11116,"Authenticate":11117,"Slider":11118,"Publisher":11119,"Practices":11120,"DelegatingMethodAccessorImpl":11121,"Recursive":11122,"Predicate":11123,"A2":11124,"Pas":11125,"Pub":11126,"X509":11127,"thru":11128,"alth":11129,"ctr":11130,"prox":11131,"Conf":11132,"fff":11133,"embedding":11134,"evaluation":11135,"NSURLConnection":11136,"utilize":11137,"Hopefully":11138,"Delay":11139,"mirror":11140,"Family":11141,"Jet":11142,"nes":11143,"apt":11144,"worst":11145,"Isn":11146,"AppDelegate":11147,"NORE":11148,"workarounds":11149,"UInt32":11150,"ultimately":11151,"iciency":11152,"_Name":11153,"sans":11154,"tedi":11155,"dock":11156,"Third":11157,"ginx":11158,"recording":11159,"persisted":11160,"Suite":11161,"BUFF":11162,"reaches":11163,"360":11164,"900":11165,"F1":11166,"Usu":11167,"Wall":11168,"Wel":11169,"borders":11170,"hur":11171,"illegal":11172,"resides":11173,"FilePath":11174,"sym":11175,"flv":11176,"Actions":11177,"......":11178,"!!!!":11179,"2413024130":11180,"SAX":11181,"Tk":11182,"Tile":11183,"vetic":11184,"contrib":11185,"pod":11186,"avor":11187,"prime":11188,"Substring":11189,"[[[":11190,"detecting":11191,"immediate":11192,"ADODB":11193,"ctype":11194,"grace":11195,"commonly":11196,"FileMode":11197,"GetData":11198,"clues":11199,"localized":11200,"associations":11201,"getElementsByTagName":11202,"/,":11203,"JMS":11204,"Tick":11205,"dual":11206,"iation":11207,"stated":11208,"construction":11209,"Looks":11210,"overcome":11211,"print_r":11212,"configuring":11213,"ToolStrip":11214,"Storing":11215,"Magick":11216,"abstraction":11217,"vetica":11218,"Birth":11219,"HERE":11220,"JTable":11221,"mass":11222,"nHibernate":11223,"youtube":11224,"stating":11225,"forKey":11226,"Strange":11227,"Buf":11228,"polygon":11229,"Blackberry":11230,"BufferedReader":11231,"Cached":11232,"GW":11233,"NN":11234,"VO":11235,"[@":11236,"etime":11237,"ops":11238,"netbeans":11239,"XMLSchema":11240,"symp":11241,"approved":11242,"drives":11243,"LOAD":11244,"rmi":11245,"javac":11246,"Failure":11247,"strto":11248,"problematic":11249,"DataAccess":11250,"=\"#":11251,"UIColor":11252,"Textbox":11253,"Seq":11254,"Apps":11255,"switches":11256,"Clicked":11257,"Searching":11258,"Abort":11259,"prevents":11260,"synchronization":11261,"Different":11262,"initializer":11263,"Welcome":11264,"AI":11265,"Codes":11266,"Gate":11267,"HAV":11268,"blo":11269,"cu":11270,"icast":11271,"setValue":11272,"Force":11273,"overloaded":11274,"openid":11275,"sourceforge":11276,"Applet":11277,"begins":11278,"\"]);":11279,"Gui":11280,"................":11281,"Broker":11282,"sitemap":11283,"Pdf":11284,"Self":11285,"-----------":11286,"ItemTemplate":11287,"XmlNode":11288,"floor":11289,"wraps":11290,"cars":11291,"DATAB":11292,"temporarily":11293,"evaluating":11294,"confirmed":11295,"Datas":11296,"GetString":11297,"Boot":11298,"3333":11299,"routines":11300,"Accounts":11301,"cheap":11302,"Igniter":11303,"elapsed":11304,"disabling":11305,"rought":11306,"placeholder":11307,"ARM":11308,"marking":11309,"tooth":11310,"MapPath":11311,"rench":11312,"casts":11313,"Prefix":11314,"maintained":11315,"collected":11316,"wildcard":11317,"Programmatically":11318,"HQL":11319,"Ju":11320,"Clone":11321,"grees":11322,"Interest":11323,"FFF":11324,"biggest":11325,"Recordset":11326,"enums":11327,"tedious":11328,"Ye":11329,"pdb":11330,"rr":11331,"tap":11332,"noob":11333,"varying":11334,"Segment":11335,"NSBundle":11336,"ENGIN":11337,"OperationContract":11338,"parenthe":11339,"UK":11340,"]/":11341,"slice":11342,"wParam":11343,"}'":11344,"ison":11345,"unchecked":11346,"subview":11347,"ClassA":11348,"Appear":11349,"Notepad":11350,"ApplicationContext":11351,"Hosting":11352,"OBJECT":11353,"8c":11354,"FX":11355,"Zoom":11356,"]['":11357,"_address":11358,"fy":11359,"edException":11360,"icing":11361,"keting":11362,"getters":11363,"webservices":11364,"Weight":11365,"versioning":11366,"expires":11367,"REC":11368,"relate":11369,"FormsAuthentication":11370,"Populate":11371,"mscorlib":11372,"Air":11373,"Alive":11374,"GI":11375,"Lear":11376,"MCE":11377,"_m":11378,"ento":11379,"mozilla":11380,"hood":11381,"iterations":11382,"simulation":11383,"Arrays":11384,"bottle":11385,"THIS":11386,"Imports":11387,"12345":11388,"implicitly":11389,"AH":11390,"Mult":11391,"O2":11392,"_KEY":11393,"hWnd":11394,"erik":11395,"recover":11396,"revisions":11397,"apan":11398,"ups":11399,"Dataset":11400,"Texture":11401,"ClassName":11402,"certificates":11403,"joy":11404,"computing":11405,"deletion":11406,"crashing":11407,"DirectX":11408,"bullet":11409,"Jeff":11410,"Padding":11411,"_no":11412,"bd":11413,"utter":11414,"props":11415,"Those":11416,"readability":11417,"Declar":11418,"controlled":11419,"customized":11420,"screens":11421,"Mapper":11422,"Generating":11423,"identified":11424,"rubygems":11425,"0000000000000000":11426,"intervals":11427,"Ev":11428,"`),":11429,"mdb":11430,"infer":11431,"covery":11432,"trip":11433,"Anonymous":11434,"122":11435,"efficiency":11436,"IndexOf":11437,"accordion":11438,"CRIP":11439,"millions":11440,"IronPython":11441,"4j":11442,"Sav":11443,"SIM":11444,"ed_":11445,"blend":11446,"Expect":11447,"...?":11448,"01d":11449,"param2":11450,"possibilities":11451,"Activator":11452,"factors":11453,"interpreted":11454,"Automation":11455,"repeatedly":11456,"WARNING":11457,"SERVICE":11458,"Gi":11459,"Comparison":11460,"FieldName":11461,"parseInt":11462,"---+":11463,"terminated":11464,"Dynamically":11465,"scanner":11466,"Channels":11467,"mysql_fetch_array":11468,"W3C":11469,"Mix":11470,"leaf":11471,"stamp":11472,"oter":11473,"DataProvider":11474,"Unhandled":11475,"Workbook":11476,"appended":11477,"centered":11478,"illustrate":11479,"Continue":11480,"Symbol":11481,"!\";":11482,"\"(":11483,"_all":11484,"rever":11485,"resp":11486,"Dog":11487,"libc":11488,"overl":11489,"REPL":11490,"gotchas":11491,"splitting":11492,"DbConnection":11493,"mysql_error":11494,"asynchronously":11495,"Vehicle":11496,"estimate":11497,"sme":11498,"raises":11499,"WebApp":11500,"actionpack":11501,"SEO":11502,"WinForm":11503,"hashes":11504,"lug":11505,"preg_replace":11506,"telnet":11507,"HI":11508,"lon":11509,"myfile":11510,"corrupted":11511,"REG":11512,"CTRL":11513,"launches":11514,"RewriteEngine":11515,"expanded":11516,"Green":11517,"$$":11518,"fits":11519,"metic":11520,"former":11521,"0x800":11522,"Colors":11523,"LinqTo":11524,"IBOut":11525,"CREMENT":11526,"ALLOW":11527,"carry":11528,"duplicated":11529,"morning":11530,"Rotate":11531,"cold":11532,"neath":11533,"mathematic":11534,"compo":11535,"******":11536,"recordset":11537,"CLOSE":11538,"luc":11539,"dialogs":11540,"ruption":11541,"explaining":11542,"consistently":11543,"fadeOut":11544,"Atom":11545,"CAR":11546,"RI":11547,"TAB":11548,"pivot":11549,"thick":11550,"propri":11551,"Than":11552,"helping":11553,"Unmanaged":11554,"asty":11555,"Creator":11556,"integrity":11557,"cygwin":11558,"Portal":11559,"Driven":11560,"bootstrap":11561,"Prepared":11562,"activesupport":11563,"!).":11564,"Isol":11565,"_tag":11566,"ads":11567,"outlook":11568,"recv":11569,"specs":11570,"CTYPE":11571,"200906":11572,"ClientScript":11573,"realise":11574,"(!$":11575,"Parts":11576,"BackgroundWorker":11577,"Naming":11578,"thumbnails":11579,"RichTextBox":11580,"mysqld":11581,"GTK":11582,"0A":11583,"dar":11584,"alot":11585,"propag":11586,"107":11587,"Observer":11588,"clickable":11589,"inheriting":11590,"suited":11591,"qualified":11592,"BizTalk":11593,"grateful":11594,":%":11595,"ij":11596,"pipes":11597,"ulous":11598,"hooks":11599,"Gridview":11600,"renderer":11601,"FAIL":11602,"afraid":11603,"Payment":11604,"visitors":11605,"Cygwin":11606,"wanna":11607,"UINavigationController":11608,"]*)":11609,"i686":11610,"adj":11611,"division":11612,"106":11613,"specifies":11614,"accesses":11615,"115":11616,"closer":11617,"floats":11618,"hides":11619,"555":11620,"Clojure":11621,"calculating":11622,"instantiation":11623,"decorator":11624,"YYYY":11625,"SelectedIndexChanged":11626,"+'":11627,"DX":11628,"swi":11629,"rouse":11630,"training":11631,"Initializ":11632,"achieving":11633,"Glass":11634,"2k":11635,"220":11636,"Rather":11637,"^^":11638,"pow":11639,"metho":11640,"Stats":11641,"corrupt":11642,"managers":11643,"seemingly":11644,"CodeIgniter":11645,"TPUT":11646,"stripped":11647,"350":11648,";-":11649,"EP":11650,"Got":11651,"HWND":11652,"[...]":11653,"_service":11654,"iPod":11655,"isk":11656,"logon":11657,"paid":11658,"ToLower":11659,"subdirectory":11660,"HttpWebResponse":11661,"lessly":11662,"iPhoneSimulator":11663,"talks":11664,"databound":11665,"describing":11666,"drupal":11667,"ContentsOf":11668,"12345678":11669,"Blah":11670,"OPTION":11671,"C2":11672,"_1_":11673,"b0":11674,"gig":11675,"velocity":11676,"procs":11677,"sharp":11678,"Into":11679,"Stamp":11680,"fee":11681,"tons":11682,"letting":11683,"underneath":11684,"Faces":11685,"BindingSource":11686,"navigationController":11687,"safety":11688,"AES":11689,"BSD":11690,"cow":11691,"mere":11692,"replic":11693,"networking":11694,"UserDefaults":11695,"BarButton":11696,"survey":11697,"mocking":11698,"shopping":11699,"SerialPort":11700,"HR":11701,"JRE":11702,"Na":11703,"X_":11704,"birth":11705,"ipt":11706,"nn":11707,"xsi":11708,"recompile":11709,"aling":11710,"illed":11711,"exten":11712,"extracting":11713,"mysql_real_":11714,"DDL":11715,"corresponds":11716,"BeanFactory":11717,"Topic":11718,"serializing":11719,"Tracker":11720,"OUTPUT":11721,"idiom":11722,"ENGINE":11723,"Az":11724,"_str":11725,"elect":11726,"onClick":11727,"unordered":11728,"perman":11729,"tight":11730,"shorter":11731,"Except":11732,"ASH":11733,"Determine":11734,"taskbar":11735,"NullReference":11736,"landscape":11737,"SUCCESS":11738,"=?":11739,"Cascade":11740,"atable":11741,"mentions":11742,"compet":11743,"field1":11744,"system32":11745,"REF":11746,"afterwards":11747,"COMP":11748,"registering":11749,"StackPanel":11750,"regularly":11751,"Complex":11752,"monitors":11753,"escaping":11754,"initWithNib":11755,"RSA":11756,"messed":11757,"explode":11758,"=@":11759,"BA":11760,"T1":11761,"_len":11762,"fm":11763,"rans":11764,"xhr":11765,"getJSON":11766,"permut":11767,"ached":11768,"disposed":11769,"irable":11770,"accomplished":11771,"Extended":11772,"Tunes":11773,"RedirectToAction":11774,"Usually":11775,"Mb":11776,"PY":11777,"RST":11778,"SOR":11779,"XNA":11780,"blow":11781,"gv":11782,"jn":11783,"p0":11784,"ork":11785,"iser":11786,"unavailable":11787,"run_":11788,"definit":11789,"first_name":11790,"ORY":11791,"latin":11792,"']))":11793,"trade":11794,"TabControl":11795,"Guide":11796,"Modules":11797,"Sphere":11798,"Connected":11799,"PickerController":11800,"++++++++":11801,"established":11802,"DotNet":11803,"Ger":11804,"lf":11805,"ann":11806,"lig":11807,"avid":11808,"variations":11809,"farm":11810,"ActionListener":11811,"particip":11812,"UNIT":11813,"improved":11814,"HashSet":11815,"tweak":11816,"examine":11817,"%\"":11818,"Bes":11819,"Wat":11820,"dv":11821,"repaint":11822,"urlen":11823,"resume":11824,"AddIn":11825,"Disk":11826,"Transactions":11827,"Copyright":11828,"initializing":11829,"Middle":11830,"COLUMN":11831,"*\\":11832,"7c":11833,"Medi":11834,"Mike":11835,"YG":11836,"fname":11837,"inese":11838,"...,":11839,"stories":11840,"multipart":11841,"HttpClient":11842,"releasing":11843,"purely":11844,"Embedded":11845,"Course":11846,"INotifyPropertyChanged":11847,"Enumerable":11848,"KS":11849,"LF":11850,"btw":11851,"iTunes":11852,"nob":11853,"ournal":11854,"Online":11855,"OnSubmit":11856,"cleared":11857,"Creation":11858,"avoiding":11859,"ignores":11860,"volatile":11861,"majority":11862,"dropping":11863,"delimiter":11864,"fundamental":11865,"Measure":11866,"Professional":11867,"655":11868,"Nu":11869,"Squ":11870,"Was":11871,"ior":11872,"v4":11873,"analog":11874,"eness":11875,"hellow":11876,"Ass":11877,"start_":11878,"memcached":11879,"0000000":11880,"MSMQ":11881,"study":11882,"duplication":11883,"Heap":11884,"Translate":11885,"dispatcher":11886,"javadoc":11887,"Declare":11888,"OVER":11889,"a0":11890,"gur":11891,"relies":11892,"Interfaces":11893,"require_once":11894,"Googling":11895,"ReportViewer":11896,"AAA":11897,"Tried":11898,"DTS":11899,"infra":11900,"honest":11901,"ufacturer":11902,"CXcp":11903,"Bonus":11904,"apanese":11905,"0100":11906,"Hex":11907,"IFI":11908,"Pet":11909,"biz":11910,"bubble":11911,"Prob":11912,"CHE":11913,"MapRoute":11914,"accepting":11915,"Timestamp":11916,"descend":11917,"intuitive":11918,"Saving":11919,"ULL":11920,"arrange":11921,"becoming":11922,"loses":11923,"sures":11924,"Adap":11925,"__name":11926,"119":11927,"mdf":11928,"BackColor":11929,"Toolbar":11930,"refreshed":11931,"significantly":11932,"Watcher":11933,"Fun":11934,"GE":11935,"GPS":11936,"uro":11937,"uary":11938,"sian":11939,"cols":11940,"create_":11941,"overview":11942,"Table2":11943,"Updates":11944,"EndPoint":11945,"mercurial":11946,"ToolTip":11947,"hierarchical":11948,"globally":11949,"hbm":11950,"rant":11951,"renamed":11952,"orge":11953,"dee":11954,"ifdef":11955,"magn":11956,"textField":11957,"keypress":11958,"UITabBar":11959,"m_p":11960,"Worksheet":11961,"category_id":11962,"Animations":11963,"adobe":11964,"Maint":11965,"/'":11966,"Cir":11967,"Sever":11968,"ima":11969,"za":11970,"theoret":11971,"tric":11972,"Typed":11973,"csproj":11974,"XmlElement":11975,"listeners":11976,"DSL":11977,"Lifecycle":11978,"Purchase":11979,"candidate":11980,"CString":11981,"Gallery":11982,"Hence":11983,"gle":11984,"slave":11985,"restarted":11986,"reinvent":11987,"2004":11988,"EDI":11989,"SDKs":11990,"Seconds":11991,"largest":11992,"diagrams":11993,"glassfish":11994,"Jar":11995,"]'":11996,"dm":11997,"fan":11998,"nasty":11999,"edits":12000,"imer":12001,"Mocks":12002,"summar":12003,"scrolls":12004,"attaching":12005,"preventing":12006,"injected":12007,"semble":12008,"implications":12009,"CssClass":12010,"Btn":12011,"DV":12012,"NAnt":12013,"SON":12014,"extr":12015,"antic":12016,"bypass":12017,"public_html":12018,"ipsum":12019,"UILD":12020,"validated":12021,"Trac":12022,"Application1":12023,"Leg":12024,"international":12025,"appending":12026,"spell":12027,"horrible":12028,"DROP":12029,"$/":12030,"SAS":12031,"_status":12032,"dictionaries":12033,"independ":12034,"subsonic":12035,"('');":12036,"charge":12037,"CEPT":12038,"ANDLE":12039,"pasting":12040,"mingw":12041,"BIN":12042,"Dinner":12043,"Four":12044,"Qty":12045,"UUID":12046,"cipher":12047,"dam":12048,"v6":12049,"instrument":12050,"hael":12051,"disc":12052,"Addr":12053,"OnLoad":12054,"URLClassLoader":12055,"UNC":12056,"Compilation":12057,"chemy":12058,"Production":12059,"mysql_real_escape_string":12060,"unpack":12061,"emulate":12062,"TableViewController":12063,"ContextMenu":12064,"Being":12065,"Letter":12066,"flexibility":12067,"delivery":12068,"balan":12069,"appeared":12070,"shrink":12071,"initWithNibName":12072,"pending":12073,"vn":12074,"oned":12075,"orld":12076,"enabling":12077,"icol":12078,"isted":12079,"ags":12080,"Profiler":12081,"viable":12082,"Charge":12083,"preprocessor":12084,"xml_":12085,"203":12086,"lately":12087,"*****":12088,"Scripting":12089,"DOCTYPE":12090,"Filters":12091,"clarity":12092,"scheduler":12093,"truly":12094,"deadlock":12095,"MovieClip":12096,"Inherits":12097,"IBOutlet":12098,".$":12099,"MID":12100,"TS":12101,"]\\":12102,"d0":12103,"restarting":12104,"forces":12105,"exposes":12106,"oted":12107,"Though":12108,"idd":12109,"()]":12110,"Reply":12111,"submits":12112,"ashx":12113,"XMLHTTP":12114,"ServiceHost":12115,"localization":12116,"created_at":12117,"302":12118,"joining":12119,"utilities":12120,"Temporary":12121,"rousel":12122,"methodo":12123,"-\\":12124,"Stub":12125,"stopping":12126,"ObjectInputStream":12127,"action_controller":12128,"marshall":12129,"ED_":12130,"DEF":12131,"parent_id":12132,"139":12133,"ItemsControl":12134,"registers":12135,"Operator":12136,"Signature":12137,"_in_":12138,"dozen":12139,"waits":12140,"Deleted":12141,"Agg":12142,"JButton":12143,"_y":12144,"tv":12145,"degrees":12146,"etary":12147,"plays":12148,"regions":12149,"requesting":12150,"116":12151,"ByName":12152,"URLConnection":12153,"ISession":12154,"recommendation":12155,"authors":12156,"MP3":12157,"complaining":12158,"Brow":12159,"Eg":12160,"Sites":12161,"Wpf":12162,"fidd":12163,"myArray":12164,"()'":12165,"textfield":12166,"Locale":12167,"Deb":12168,"site_":12169,"TextArea":12170,"queues":12171,"'''":12172,"reliably":12173,"helloworld":12174,"\"\\\\":12175,"132":12176,"O_":12177,"WID":12178,"wal":12179,"prove":12180,"magically":12181,"tabBar":12182,"warn":12183,"Bindings":12184,"CharSet":12185,"scenes":12186,"capturing":12187,"unky":12188,"MsgBox":12189,"professional":12190,"concise":12191,"Literal":12192,"AY":12193,"Echo":12194,"Fx":12195,"Greet":12196,"M_":12197,"RMI":12198,"e2":12199,"Reverse":12200,"flu":12201,"crystal":12202,"Runnable":12203,"errno":12204,"Tracking":12205,"TRANSACTION":12206,"Balance":12207,"Analytics":12208,"'@":12209,"CV":12210,"Gmail":12211,"pump":12212,"patient":12213,"sln":12214,"unity":12215,"Std":12216,"foreground":12217,"Intro":12218,"0x1":12219,"experiencing":12220,"SiteMap":12221,"costs":12222,"UDF":12223,"resizable":12224,"growing":12225,"SharpDevelop":12226,"ology":12227,".\";":12228,"4a":12229,"Baz":12230,"IFoo":12231,"WF":12232,"d2":12233,"iText":12234,"lor":12235,"cocoa":12236,"data_":12237,"Assemb":12238,"RunLoop":12239,"producing":12240,"NumberOf":12241,"ManyToMany":12242,"Terminal":12243,"Storyboard":12244,"VEL":12245,"tm":12246,"ined":12247,"lover":12248,"TypeError":12249,"ENTRY":12250,"MethodInfo":12251,"222":12252,"cleaned":12253,"InterfaceOrientation":12254,"Features":12255,"Decor":12256,"associative":12257,"truncate":12258,"frustrating":12259,"auto_increment":12260,"Bulk":12261,"CB":12262,"EA":12263,"VPN":12264,"WYS":12265,"[/":12266,"_main":12267,"_query":12268,"_Master":12269,"crop":12270,"ja":12271,"sits":12272,"htdocs":12273,"Restrict":12274,"IES":12275,"Selecting":12276,"SOL":12277,"protection":12278,"dtd":12279,"timestamps":12280,"convince":12281,"presumably":12282,"NullReferenceException":12283,";$":12284,"GS":12285,"Tar":12286,"_image":12287,"pb":12288,"workstation":12289,"uling":12290,"addObject":12291,"latency":12292,"capital":12293,"catching":12294,"covers":12295,"assistance":12296,"Jetty":12297,"omitted":12298,"incomplete":12299,"atar":12300,"aming":12301,"parses":12302,"UIElement":12303,"hands":12304,"spir":12305,"ATCH":12306,"presenter":12307,"UTE":12308,"DirectoryEntry":12309,"\"/\"":12310,"Finished":12311,"str_replace":12312,"accidentally":12313,"adjac":12314,",&":12315,"Choo":12316,"]}":12317,"xcode":12318,"{...}":12319,"rev":12320,"getValue":12321,"Moved":12322,"incredi":12323,"Chars":12324,"North":12325,"BUFFER":12326,")-":12327,"GEN":12328,"nut":12329,"unresolved":12330,"keyst":12331,"suffix":12332,"Confirm":12333,"()),":12334,"ReSh":12335,"logies":12336,"Service1":12337,"last_name":12338,"fluent":12339,"Edited":12340,"foo_":12341,"increases":12342,"router":12343,"Marker":12344,"tbl_":12345,"occured":12346,"------------------------------------------------------------------------":12347,"DRY":12348,"Mutex":12349,"__name__":12350,"Aggreg":12351,"%\\":12352,")|":12353,"Wire":12354,"yote":12355,"threw":12356,"wired":12357,"agon":12358,"Recommend":12359,"Stretch":12360,"webpart":12361,"UITextView":12362,"121":12363,"ISAM":12364,"Manifest":12365,"Recipient":12366,"Imperson":12367,"occurring":12368,"Libraries":12369,"cycles":12370,"&,":12371,"Blocks":12372,"HP":12373,"Mic":12374,"h2":12375,"{};":12376,"unclear":12377,"iders":12378,"codec":12379,"MyType":12380,"Define":12381,"facility":12382,"Leopard":12383,"sensor":12384,"-------+--------":12385,"Life":12386,"restriction":12387,"FYI":12388,"WYSIW":12389,"C4":12390,"IK":12391,"_result":12392,"nx":12393,"chr":12394,"unlock":12395,"()[":12396,"read_":12397,"texts":12398,"prone":12399,"predefined":12400,"FileUpload":12401,"Moo":12402,"Generation":12403,"activities":12404,"importantly":12405,"ReSharper":12406,"4e":12407,"8b":12408,"Cipher":12409,"bid":12410,"ented":12411,"collector":12412,"LES":12413,"Int64":12414,"traverse":12415,"engineering":12416,"VERY":12417,"versity":12418,"HtmlHelper":12419,"(?:(?":12420,"Elapsed":12421,"­­­­­­­­­­­­­­­­":12422,"Known":12423,"dangerous":12424,"GDB":12425,"R2":12426,"Room":12427,"_request":12428,"spr":12429,"|-":12430,"incompatible":12431,"asd":12432,"myData":12433,"()->":12434,"observe":12435,"minus":12436,"IT_":12437,"118":12438,"responsive":12439,"hashing":12440,"shared_ptr":12441,"repet":12442,"glTex":12443,"CustomerID":12444,"Routes":12445,"AVAudio":12446,"VARCHAR2":12447,"ActiveXObject":12448,"~~~~":12449,"decrease":12450,"_object":12451,"_index":12452,"_length":12453,"lc":12454,"whilst":12455,"CoTenant":12456,"vies":12457,"disconnect":12458,"Queries":12459,"LEVEL":12460,"phin":12461,"KeyValue":12462,"engineer":12463,"optimizations":12464,"consistency":12465,"alignment":12466,"naive":12467,"affects":12468,"scalar":12469,"JPG":12470,"bonus":12471,">::":12472,"Alex":12473,"BLL":12474,"GG":12475,"MDI":12476,"Music":12477,"Trouble":12478,"glow":12479,"tie":12480,"encoder":12481,"delphi":12482,"modes":12483,"MSXML":12484,"Intellisense":12485,"0x00000000":12486,"Scripts":12487,"155":12488,"IPAddress":12489,"ColumnName":12490,"attention":12491,"BindingList":12492,"picking":12493,"ERROR_":12494,"MasterPage":12495,"powershell":12496,"scrollbars":12497,"Hudson":12498,";.":12499,"picks":12500,"inventory":12501,"selenium":12502,"textBox":12503,"mainBundle":12504,"117":12505,"ByRef":12506,"TestClass":12507,"Writ":12508,"quoted":12509,"Neither":12510,"----------------------------------------":12511,"NullPointer":12512,"Repeat":12513,"concatenate":12514,"campaign":12515,"infrastructure":12516,"450":12517,"9a":12518,"nail":12519,"pnl":12520,"sprintf":12521,"lives":12522,"irrelevant":12523,"subviews":12524,"Moving":12525,"expire":12526,"vertices":12527,"Test1":12528,"AreEqual":12529,"draws":12530,"mouseout":12531,"Sockets":12532,"frontend":12533,"Sorted":12534,"Descend":12535,"claims":12536,"_FILENAME":12537,"bottlene":12538,"Dan":12539,"TM":12540,"Vendor":12541,"dup":12542,"fld":12543,"onical":12544,"POCO":12545,"Helpers":12546,"333":12547,"extracted":12548,"TransactionScope":12549,"TeamCity":12550,"assembler":12551,"allest":12552,"MAX_":12553,"Navigate":12554,"predic":12555,"Subscri":12556,"umbersome":12557,"gateway":12558,"aborate":12559,"210":12560,"HKEY":12561,"TX":12562,"bra":12563,"lm":12564,"replaces":12565,"gettext":12566,"essential":12567,"pom":12568,"namely":12569,"Dates":12570,"Datagrid":12571,"interceptor":12572,"ipment":12573,"))]":12574,"EventDispatch":12575,"Bool":12576,"eye":12577,"Handlers":12578,"psz":12579,"CHANG":12580,"reshold":12581,"sequential":12582,"Grad":12583,"lowercase":12584,"obtained":12585,"ROW_":12586,"gracefully":12587,"\"',":12588,":&":12589,"iod":12590,"bear":12591,"tracing":12592,"prices":12593,"SQL_":12594,"subdirectories":12595,"1001":12596,"lighten":12597,"similarly":12598,"attacks":12599,"Spread":12600,"Utilities":12601,"comparisons":12602,"Resolver":12603,"1999":12604,"99999999999999999999999999999999":12605,"OutOfMemory":12606,"proprietary":12607,"Shad":12608,"Sources":12609,"_addr":12610,"gy":12611,"lr":12612,"playback":12613,"multithreaded":12614,"Ready":12615,"WinXP":12616,"considerations":12617,"selectors":12618,"funny":12619,"nightma":12620,"CAP":12621,"Want":12622,"_v":12623,"bank":12624,"pwd":12625,"rack":12626,"swe":12627,"GetUser":12628,"201":12629,"tagged":12630,"visually":12631,"avoided":12632,"activation":12633,"get_contents":12634,"processors":12635,"serializable":12636,"7f8":12637,"nicer":12638,"postgresql":12639,"FUNCTION":12640,"/^":12641,"748":12642,"_root":12643,"cumbersome":12644,"deals":12645,"pling":12646,"Intern":12647,"2002":12648,"ffmpeg":12649,"shapes":12650,"equality":12651,"deny":12652,"targeting":12653,"integrating":12654,"consumed":12655,"Workspace":12656,"HttpServletRequest":12657,"truncated":12658,"ko":12659,"mim":12660,"smar":12661,"setAnimation":12662,"opport":12663,"var_":12664,"ETCH":12665,"reground":12666,"URLWith":12667,"swt":12668,"156":12669,"drawRect":12670,"Foreground":12671,"computation":12672,"constructs":12673,"Characters":12674,"artifacts":12675,"EventDispatchThread":12676,"(?)":12677,"BUILD":12678,"CU":12679,"T2":12680,"mex":12681,"tiles":12682,"Inline":12683,"Really":12684,"=\"/":12685,"ToEnd":12686,"safari":12687,"axd":12688,"virus":12689,"Decrypt":12690,"Performed":12691,"yields":12692,"occurrence":12693,"Inheritance":12694,"Fold":12695,"]->":12696,"_height":12697,"brought":12698,"newest":12699,"Stage":12700,"Listing":12701,"Aspect":12702,"Typ":12703,"REM":12704,"307":12705,"ClientID":12706,"406":12707,"SelectList":12708,"18n":12709,"------------------------------------------------":12710,"USA":12711,"refreshing":12712,"498":12713,"strictly":12714,"Printing":12715,"DependencyObject":12716,"principle":12717,"demonstrate":12718,"Violation":12719,"Kernel":12720,"Quality":12721,"enhance":12722,"/%":12723,"BLOB":12724,"CType":12725,"Matt":12726,"Paging":12727,"cities":12728,"d_":12729,"lag":12730,"rsync":12731,"arest":12732,"indices":12733,"MyBase":12734,"tableview":12735,"overlooking":12736,"cru":12737,"Documentation":12738,"LaTeX":12739,"Helvetica":12740,"443":12741,"total_":12742,"Returning":12743,"wxPython":12744,"meaningful":12745,"EVENT":12746,"rarely":12747,"Injection":12748,"8a":12749,"FIELD":12750,"L2":12751,"Sal":12752,"ea":12753,"lv":12754,"rgb":12755,"andy":12756,"Through":12757,"Inventory":12758,"Strong":12759,"Annotation":12760,"signals":12761,"appearance":12762,"345":12763,"MODE":12764,"MVP":12765,"COLOR":12766,"UTF8String":12767,"convenience":12768,"HEADER":12769,"Increment":12770,"B2":12771,"Cust":12772,"Jasper":12773,"NH":12774,"Nhibernate":12775,"Sam":12776,"[];":12777,"fg":12778,"ham":12779,"Req":12780,"20000":12781,"UIKit":12782,"NSIndexPath":12783,"dbml":12784,"Compression":12785,"EndDate":12786,"binder":12787,"pires":12788,"Closing":12789,"3700":12790,"Completion":12791,"jumps":12792,"subscriber":12793,"Phys":12794,"satisfied":12795,"Surface":12796,"SmtpClient":12797,"Gateway":12798,"Ln":12799,"_get":12800,"dying":12801,"fro":12802,"gri":12803,"m2":12804,"file2":12805,"Inclu":12806,"form1":12807,"Expires":12808,"opener":12809,"UserControls":12810,"misc":12811,"mailing":12812,"CHO":12813,"accum":12814,"hibernatetool":12815,"Besides":12816,"+----+--------":12817,"BAR":12818,"Sem":12819,"jdk":12820,"scores":12821,"eres":12822,"sient":12823,"Incorrect":12824,"discard":12825,"aught":12826,"msdb":12827,"Moq":12828,"standing":12829,"Clients":12830,"POP":12831,"<<\"":12832,"personally":12833,"alerts":12834,"\"])":12835,"FAILE":12836,"rotated":12837,"`,`":12838,"GAE":12839,"Surely":12840,"5B":12841,":.":12842,"Pret":12843,"RR":12844,"TOR":12845,"ders":12846,"pw":12847,"reng":12848,"mySQL":12849,"visor":12850,"254":12851,"Platforms":12852,"J2EE":12853,"Furthermore":12854,"AUTO_IN":12855,"approximately":12856,"Indicator":12857,"/]":12858,"Tax":12859,"\\&":12860,"ining":12861,"and_":12862,"tive":12863,"INPUT":12864,"manages":12865,"aka":12866,"shake":12867,"EXP":12868,"basic_":12869,"wsgi":12870,"POSIX":12871,"WISE":12872,"ambiguous":12873,"fraction":12874,"Debian":12875,"BN":12876,"CN":12877,"EMP":12878,"WP":12879,"��":12880,"asi":12881,"soph":12882,"unrelated":12883,"bol":12884,"recall":12885,"rector":12886,"anging":12887,"park":12888,"WebSphere":12889,"Undefined":12890,"tributed":12891,"Manual":12892,"prepend":12893,"Pressed":12894,"banner":12895,"(.*)$":12896,"occurrences":12897,"Volume":12898,"_order":12899,"esh":12900,"ables":12901,"myString":12902,"food":12903,"Instrument":12904,"()))":12905,"Reshar":12906,"passwd":12907,"validations":12908,"TableCell":12909,"134":12910,"LayoutPanel":12911,"Constant":12912,"motion":12913,"puzzle":12914,"Telerik":12915,"WYSIWYG":12916,"CALL":12917,"Em":12918,"HK":12919,"TA":12920,"[-":12921,"reside":12922,"terrible":12923,"webforms":12924,"lette":12925,"Org":12926,"Bold":12927,"arg2":12928,"AppSettings":12929,"recorded":12930,"brush":12931,"Formatting":12932,"computed":12933,"incrementing":12934,"768":12935,"scalability":12936,"dispatchEvent":12937,"George":12938,"Shortcut":12939,"scaled":12940,"smell":12941,"=\\\"":12942,"BF":12943,"Never":12944,"cx":12945,"hab":12946,"jit":12947,"admit":12948,"quer":12949,"creator":12950,"recipe":12951,"Lorem":12952,"Asset":12953,"ipse":12954,"0xb":12955,"0x80":12956,"programmatic":12957,"smallest":12958,"Opening":12959,"decides":12960,"traits":12961,"numerical":12962,"masterpage":12963,"Tabs":12964,"principles":12965,"slideshow":12966,"License":12967,"Clause":12968,"Txt":12969,"SOURCE":12970,"NullPointerException":12971,"Resharper":12972,"&)":12973,"3e":12974,"TON":12975,"cnt":12976,"p3":12977,"uuid":12978,"str1":12979,"__main":12980,"ARCH":12981,"visits":12982,"SqlDataSource":12983,"244":12984,"ostream":12985,"matlab":12986,"Ordered":12987,"1_Click":12988,"executables":12989,"retrieves":12990,"Authorize":12991,"ctl00":12992,"3px":12993,"GIF":12994,"LAMP":12995,"LANG":12996,"]|":12997,"isEqual":12998,"lored":12999,"hacks":13000,"doll":13001,"Theme":13002,"grasp":13003,"load_":13004,"Quit":13005,"ITE_":13006,"directed":13007,"designers":13008,"protocols":13009,"scala":13010,"Destroy":13011,"colleague":13012,"Coding":13013,"MONTH":13014,"SIMPLE":13015,"FAILED":13016,"rength":13017,"AUTO_INCREMENT":13018,"(#":13019,"4s":13020,"Frames":13021,"Tre":13022,"_log":13023,"dget":13024,"fclose":13025,"jk":13026,"vul":13027,"erd":13028,"conversions":13029,"Thick":13030,"getTime":13031,"intell":13032,"lowest":13033,"FileNotFoundException":13034,"114":13035,"Directories":13036,"digital":13037,"broker":13038,"Maximum":13039,"manipulating":13040,"PowerPoint":13041,"processorArchitecture":13042,"Photoshop":13043,"UNIQUE":13044,"promising":13045,"nobody":13046,"phinx":13047,"nightmare":13048,"Sen":13049,"TL":13050,"tur":13051,"u003":13052,"redirection":13053,"reusable":13054,"ala":13055,"Forward":13056,"Reser":13057,"xml2":13058,"FormView":13059,"multiply":13060,"KeyDown":13061,"###":13062,"MailMessage":13063,"constructing":13064,"Steve":13065,"////////////////////////////////":13066,"rwxp":13067,"Combine":13068,"arithmetic":13069,"(+":13070,"ADE":13071,"FP":13072,"Pad":13073,"fed":13074,"intr":13075,"proposed":13076,"mah":13077,"valu":13078,"posit":13079,"ClassB":13080,"xmlHttp":13081,"mitt":13082,"__construct":13083,"ITION":13084,"Http11":13085,"403":13086,"Modify":13087,"COMPL":13088,"CONNE":13089,"hibit":13090,"istrano":13091,"subjective":13092,"rooms":13093,"c_str":13094,"tuples":13095,"ancial":13096,"CLASS":13097,"iddler":13098,"(~":13099,"Scott":13100,"cro":13101,"renaming":13102,"adopt":13103,"consumption":13104,"DataObject":13105,"cave":13106,"commerce":13107,"expiration":13108,"surely":13109,"PropertyInfo":13110,"hardcoded":13111,"apache2":13112,"persons":13113,"DisplayName":13114,"technically":13115,"middleware":13116,"Archive":13117,"scaffold":13118,"Organization":13119,"PLICATION":13120,"merely":13121,"CMD":13122,"DP":13123,"Micro":13124,"_server":13125,"cul":13126,"zend":13127,"plane":13128,"triangle":13129,"networks":13130,"memcache":13131,"Form_":13132,"Appointment":13133,"Always":13134,"clojure":13135,"ActionLink":13136,"Footer":13137,"Monday":13138,"hanging":13139,"continuously":13140,"tickets":13141,"Advance":13142,"__main__":13143,"Dream":13144,"FETCH":13145,"ICollection":13146,"NVARCHAR":13147,"gaby":13148,"wks":13149,"obsc":13150,"time_":13151,"=='":13152,"owned":13153,"ghter":13154,"ListOf":13155,"Deleting":13156,"126":13157,"button1":13158,"Searcher":13159,"uniqueidentifier":13160,"VarChar":13161,"holders":13162,"MinGW":13163,"Receiver":13164,"ascading":13165,"Caption":13166,"Issues":13167,"file_get_contents":13168,"configurable":13169,"TIMESTAMP":13170,"Learning":13171,"C20":13172,"R1":13173,"RDBMS":13174,"bak":13175,"junction":13176,"nod":13177,"nginx":13178,"ugh":13179,"outh":13180,"expr":13181,"with_":13182,"myTable":13183,"200px":13184,"interpo":13185,"backed":13186,"GetLastError":13187,"100px":13188,"RegExp":13189,"logins":13190,"consideration":13191,"089":13192,"ViewModels":13193,"captured":13194,"Velocity":13195,"succeeded":13196,"mysql_fetch_":13197,"Detecting":13198,"PUBL":13199,"Existing":13200,"SOCK":13201,"Occur":13202,"432":13203,"David":13204,"GD":13205,"Tu":13206,"\\'":13207,"_Id":13208,"h_":13209,"isms":13210,"altogether":13211,"indentation":13212,"commas":13213,"Asy":13214,"overloading":13215,"Collect":13216,"plugg":13217,"tasked":13218,"animal":13219,"authentic":13220,"enables":13221,"Authenticated":13222,"destroyed":13223,"segmentation":13224,"aborted":13225,"investigating":13226,"challeng":13227,"phanum":13228,"definitive":13229,"Called":13230,"GIS":13231,"James":13232,"LT_":13233,"T4":13234,"grows":13235,"mile":13236,"Exact":13237,"vention":13238,"==\"":13239,"hore":13240,"resulted":13241,"206":13242,"IMAP":13243,"DefaultAction":13244,"VMWare":13245,"pulls":13246,"reflected":13247,"backups":13248,"Attachment":13249,"Balloon":13250,"dashboard":13251,"Delivery":13252,"Probably":13253,"Fiddler":13254,"NY":13255,"Preferences":13256,"Tds":13257,"lashes":13258,"sWith":13259,"zo":13260,"incorporate":13261,"isolation":13262,"amet":13263,"MyISAM":13264,"Solid":13265,"Dojo":13266,"nulls":13267,"SqlParameter":13268,"Connections":13269,"188":13270,"dao":13271,"payload":13272,"lifetime":13273,"Compiling":13274,"overrides":13275,"dotnet":13276,"WiX":13277,"Skip":13278,"QUERY":13279,"'{":13280,"*'":13281,"Blob":13282,"Japanese":13283,"dana":13284,"hony":13285,"rg":13286,"tures":13287,"noted":13288,"getClass":13289,"TypeID":13290,"ON_":13291,"Sets":13292,"php5":13293,"208":13294,"responds":13295,"marshal":13296,"HttpResponse":13297,"ReadToEnd":13298,"retrieval":13299,"-+-+":13300,"surprising":13301,"semantic":13302,"Supplier_Master":13303,"rapid":13304,"WISE_C":13305,"Ball":13306,"MAS":13307,"TAL":13308,"Upon":13309,"_dir":13310,"wast":13311,"erature":13312,"esign":13313,"from_":13314,"extent":13315,"Webservice":13316,"minator":13317,"everybody":13318,"PHP5":13319,"DBA":13320,"TestMethod":13321,"appender":13322,"caches":13323,"migrations":13324,"DidFinish":13325,"Automatic":13326,"]]>":13327,"InteropServices":13328,"REQUEST_FILENAME":13329,"VSTS":13330,"Cycle":13331,"Fed":13332,"_I":13333,"cue":13334,"ened":13335,"coords":13336,"weather":13337,"acting":13338,"MyMethod":13339,"list_":13340,"Adjust":13341,"Servers":13342,"gnu":13343,"Ensure":13344,"Appender":13345,"DOWN":13346,"Factor":13347,"triggering":13348,"FAQ":13349,"Activate":13350,"literally":13351,"Shadow":13352,"Est":13353,"lan":13354,"pun":13355,"ller":13356,"Stages":13357,"disposing":13358,"viewport":13359,"TableAdapter":13360,"Api":13361,"outputting":13362,"ItemID":13363,"Bea":13364,"SqlException":13365,"144":13366,"equation":13367,"Scene":13368,"superclass":13369,"DOMAIN":13370,"Activation":13371,"improvement":13372,"PERSON":13373,"Clipboard":13374,"splash":13375,"Snap":13376,"preg_match":13377,"deeper":13378,"FULL":13379,"]),":13380,"evol":13381,"verification":13382,"getMessage":13383,"Docs":13384,"Too":13385,"commandline":13386,"ThreadStart":13387,"NewLine":13388,"nony":13389,"quicker":13390,"reduced":13391,"WIN32":13392,"scalable":13393,"xxxxxxxx":13394,"pseudocode":13395,"DUCT":13396,"Distance":13397,"Attempt":13398,"Overrides":13399,"/([":13400,"9000":13401,"GV":13402,"Lab":13403,"NAM":13404,"hass":13405,"todo":13406,"itate":13407,"vehicle":13408,"unset":13409,"agues":13410,"appy":13411,"imageView":13412,"RED":13413,"159":13414,"producer":13415,"OSGi":13416,"Generics":13417,"LINE_":13418,"235":13419,"patches":13420,"evil":13421,"Conditional":13422,"Highlight":13423,"hyperlinks":13424,"naturally":13425,"silently":13426,"'},":13427,"Ip":13428,"_handler":13429,"enlighten":13430,"009":13431,"industr":13432,"recie":13433,"curios":13434,"hearing":13435,"contentType":13436,"ScriptManager":13437,"Project1":13438,"DIRECT":13439,"444":13440,"Macro":13441,"DirectoryInfo":13442,"SendMessage":13443,"strips":13444,"Installing":13445,"altered":13446,"Between":13447,"semantics":13448,"multiline":13449,"WIDTH":13450,"industry":13451,"/-":13452,"_email":13453,"══":13454,"dolor":13455,"provision":13456,"likes":13457,"pla":13458,"var1":13459,"spector":13460,"Restore":13461,"memset":13462,"DBNull":13463,"product_id":13464,"142":13465,"FIRST":13466,"Backup":13467,"descriptions":13468,"consisting":13469,"DDD":13470,"]+)":13471,"SHA":13472,"adapters":13473,"delivered":13474,"struts2":13475,"PreparedStatement":13476,"BarButtonItem":13477,"\"=>\"":13478,"100000":13479,"6b":13480,"RIA":13481,"usb":13482,"myList":13483,"emit":13484,"modifier":13485,"))))":13486,"Period":13487,"drawbacks":13488,"Calls":13489,"VALID":13490,"instantiating":13491,"TryParse":13492,"improvements":13493,"Navigator":13494,"_REQUEST":13495,"StoredProcedure":13496,"Executed":13497,"benchmark":13498,"Wheel":13499,"Saved":13500,"Bri":13501,"RFC":13502,"cab":13503,"qry":13504,"wy":13505,"atter":13506,"avatar":13507,"retval":13508,"keyCode":13509,"12px":13510,"sale":13511,"0002":13512,"NOW":13513,"PreRender":13514,"--------------------------------------------------------------------------------------------------------------------------------":13515,"+(":13516,"Band":13517,"HEL":13518,"ND":13519,"Pag":13520,"Partic":13521,"TAR":13522,"Won":13523,"aj":13524,"user32":13525,"object_id":13526,"SQLException":13527,"Album":13528,"1500":13529,"FirstOrDefault":13530,"numerator":13531,"UIImagePickerController":13532,"aaa":13533,"Contracts":13534,"DAY":13535,"organized":13536,"Jobs":13537,"externally":13538,"Michael":13539,"AVAudioPlayer":13540,"4c":13541,"6c":13542,"PAS":13543,"Sho":13544,"_init":13545,"sparse":13546,"xib":13547,"ches":13548,"Doe":13549,"portlet":13550,"differentiate":13551,"RENT_":13552,"directives":13553,"separation":13554,"34e":13555,"FF3":13556,"Leave":13557,"SaveChanges":13558,"mesh":13559,"Better":13560,",(":13561,"?),":13562,"Apr":13563,"Avoid":13564,"SK":13565,"Sat":13566,"Tube":13567,"UINT":13568,"UAC":13569,"]::":13570,"heck":13571,"iam":13572,"zation":13573,"chapter":13574,"ayer":13575,"tracks":13576,"pol":13577,"IsNot":13578,"IsPostBack":13579,"...\");":13580,"Asc":13581,"Resume":13582,"Combin":13583,"0x2":13584,"InfoPath":13585,"BaseClass":13586,"Log4":13587,"activemq":13588,"commenting":13589,"6666":13590,"pooling":13591,"BeginInvoke":13592,"scrap":13593,"grown":13594,"Scalar":13595,"Latin":13596,"mscorwks":13597,"overlapping":13598,"REPLACE":13599,"incredibly":13600,"DefaultActionInvocation":13601,"AQ":13602,"LR":13603,"wb":13604,"memo":13605,"ulas":13606,"formal":13607,"user1":13608,"Angle":13609,"DateFormat":13610,"guest":13611,"update_":13612,"group_id":13613,"capacity":13614,"Transparent":13615,"castle":13616,"Stackoverflow":13617,"Crit":13618,"exporting":13619,"PARAM":13620,"Bootstrap":13621,"PUBLIC":13622,"Crypt":13623,"Especially":13624,"\\/":13625,"_get_":13626,"hob":13627,"n_":13628,"pap":13629,"s3":13630,"alg":13631,"asset":13632,"plans":13633,"DataItem":13634,"heart":13635,".......":13636,")?[":13637,"lu_Get":13638,"ampp":13639,"(){}":13640,"umpy":13641,"correspond":13642,"contracts":13643,"Pretty":13644,"5b":13645,"Clic":13646,"Camp":13647,"Lng":13648,"Sand":13649,"Trun":13650,"Z0":13651,"inverse":13652,"depart":13653,"indication":13654,"ASMX":13655,"Chinese":13656,"GetFiles":13657,"ROLL":13658,"DBI":13659,"appendTo":13660,"ToolBar":13661,"digest":13662,"dumps":13663,"ADDR":13664,"fragistics":13665,"satisfy":13666,"convin":13667,"HorizontalAlignment":13668,"LinkedList":13669,"Ultim":13670,"licensing":13671,"mfony":13672,"coldfusion":13673,"H2":13674,"Occ":13675,"Pending":13676,"Sale":13677,"_inst":13678,"inal":13679,"reloading":13680,"ica":13681,"rectangles":13682,"stands":13683,"WithValue":13684,"speaking":13685,"Initialization":13686,"conditionally":13687,"DrawImage":13688,"counters":13689,"Ultra":13690,"symphony":13691,"Bag":13692,"FE":13693,"Frag":13694,"YPE_":13695,"nr":13696,"slo":13697,"vation":13698,"xm":13699,"ato":13700,"retry":13701,"Contr":13702,"elaborate":13703,"Refactor":13704,"disconnected":13705,"NameValue":13706,"playlist":13707,"projection":13708,"UIControl":13709,"opensymphony":13710,"Somehow":13711,"Button1":13712,"POINT":13713,"Posted":13714,"Depth":13715,"_TYPE":13716,"MOUSE":13717,"June":13718,"mathematical":13719,"Square":13720,"curiosity":13721,"010":13722,"Efficient":13723,"Gar":13724,"_parent":13725,"b77":13726,"han":13727,"nant":13728,"exposing":13729,"getConnection":13730,"fax":13731,"deflate":13732,"ControlID":13733,"astic":13734,"aken":13735,"304":13736,"146":13737,"CLIE":13738,"identifiers":13739,"Sessions":13740,"5619":13741,"lookups":13742,"analytics":13743,"AFEPARTNER":13744,"Delta":13745,"granted":13746,"-+--------":13747,"DY":13748,"Land":13749,"Lite":13750,"a5c":13751,"y1":13752,"reviews":13753,"undeclared":13754,"Anch":13755,"subtract":13756,"preload":13757,"mins":13758,"Union":13759,"SESSION":13760,"readyState":13761,"Keyword":13762,"CreateFile":13763,"widths":13764,"doubles":13765,"Shouldn":13766,"265":13767,"Displaying":13768,"rotating":13769,"scanf":13770,"sqrt":13771,"datastore":13772,"ProgressBar":13773,"VSTO":13774,"broadcast":13775,"Assemblies":13776,"!-":13777,"3A":13778,"Ko":13779,"Oct":13780,"ration":13781,"dept":13782,"Consum":13783,"grand":13784,"StringWriter":13785,"resultset":13786,"GetProperty":13787,"169":13788,"221":13789,"sensible":13790,"384":13791,"Plain":13792,"populates":13793,"discussed":13794,"invokes":13795,"portrait":13796,"Mappings":13797,"pagin":13798,"experts":13799,"stumbled":13800,"Jim":13801,"Tur":13802,"X11":13803,"dra":13804,"relying":13805,"rokes":13806,"usp":13807,"set1":13808,"ForEach":13809,"Chat":13810,"overwritten":13811,"FileInputStream":13812,"129":13813,"elseif":13814,"TableA":13815,"APPLICATION":13816,"barcode":13817,"bytecode":13818,"internals":13819,"histor":13820,"Sybase":13821,"killing":13822,"Transformer":13823,"Matlab":13824,"occup":13825,"CONFIG":13826,"Original_":13827,"________________":13828,"JspServlet":13829,"7f8ce":13830,"(??":13831,"BLE":13832,"PIC":13833,"\\[\\":13834,"gdata":13835,"omit":13836,"xwork":13837,"readers":13838,"Stroke":13839,"prere":13840,"hey":13841,"specialized":13842,"NotImplement":13843,"includeStages":13844,"Paths":13845,"SP3":13846,":(.":13847,"Initially":13848,"Reflector":13849,"invokeMethod":13850,"IGNORE":13851,"surprise":13852,"combining":13853,"AsyncPoint":13854,"mod_python":13855,"poorly":13856,"Comparable":13857,"r1r1r1r1":13858,"Hierarchy":13859,"Retrieving":13860,"hassle":13861,"3b":13862,"Bor":13863,"CUST":13864,"IAsyncResult":13865,"Less":13866,"VW":13867,"m1":13868,"inconsistent":13869,"itation":13870,"ussian":13871,"Prog":13872,"novice":13873,"textBox1":13874,"INE":13875,"modular":13876,"column1":13877,"50px":13878,"VCS":13879,"lengths":13880,"opts":13881,"YouTube":13882,"Downloads":13883,"monthly":13884,"TO_":13885,"WS_":13886,"mistakes":13887,"ctrine":13888,"adjacent":13889,"Flat":13890,"Hover":13891,"NL":13892,"Paste":13893,"School":13894,"Tit":13895,"TObject":13896,"aur":13897,"bread":13898,"Thx":13899,"riage":13900,"filepath":13901,"datacontext":13902,"Expr":13903,"paradigm":13904,"corruption":13905,"cessive":13906,"Requests":13907,"brute":13908,"OpenId":13909,"productivity":13910,"limiting":13911,"CGFloat":13912,"SCM":13913,"Needs":13914,"painful":13915,"Signal":13916,"explore":13917,"meeting":13918,"beautiful":13919,"smoothly":13920,"PARTNERID":13921,"proxies":13922,"!\\":13923,"ACL":13924,"BET":13925,"Hal":13926,"JIT":13927,"_E":13928,"eager":13929,"elif":13930,"gant":13931,"alphanum":13932,"setVisible":13933,"Pros":13934,"hashtable":13935,"webapps":13936,"pyc":13937,"Buff":13938,"parentNode":13939,"CORE":13940,"freeze":13941,"Scheduler":13942,"flaw":13943,"intellig":13944,"34e089":13945,"a5c5619":13946,";\\":13947,"Aff":13948,"Ban":13949,"IRepository":13950,"Pen":13951,"RCP":13952,"b8":13953,"dark":13954,"sealed":13955,"rock":13956,"decoding":13957,"sult":13958,"quir":13959,"()-":13960,"dial":13961,"composition":13962,"---------":13963,"Cluster":13964,"spit":13965,"signatures":13966,"MSG":13967,"Intent":13968,"typename":13969,"Desired":13970,"195":13971,"equally":13972,"TemplateBinding":13973,"ADDRESS":13974,"PrimaryKey":13975,"tackle":13976,"Azure":13977,"imagin":13978,"#\"":13979,"CAN":13980,"MBean":13981,"bridge":13982,"esp":13983,"odbc":13984,"filePath":13985,"signs":13986,"propertyName":13987,"courses":13988,"dirname":13989,"detach":13990,"Persons":13991,"TextBox1":13992,"Explicit":13993,"segments":13994,"SHA1":13995,"favour":13996,"polymorphic":13997,"'=>'":13998,"Encryption":13999,"b77a5c5619":14000,">(":14001,"MST":14002,"RM":14003,"_g":14004,"tf":14005,"vp":14006,"ited":14007,"ference":14008,"addin":14009,"webroot":14010,"textures":14011,"field2":14012,"Unsafe":14013,"guides":14014,"wwwroot":14015,"145":14016,"obj1":14017,"CommandBehavior":14018,"clearing":14019,"AD_":14020,"procedural":14021,"navigating":14022,"PDFs":14023,"vendors":14024,"AspNet":14025,"Protocols":14026,"FINE":14027,"apologize":14028,"JAVA":14029,"scoped":14030,"lucene":14031,"Gradient":14032,"5_":14033,"YEAR":14034,"][\"":14035,"dere":14036,"tld":14037,"zlib":14038,"zoo":14039,"cla":14040,"Rep":14041,"DataColumn":14042,"intermitt":14043,"',@":14044,"phen":14045,"AppServer":14046,"Regard":14047,"selectedIndex":14048,"dirs":14049,"tracker":14050,"AutoGenerate":14051,"symbolic":14052,"iterators":14053,"Capt":14054,"affecting":14055,"Resolution":14056,"b77a5c561934e089":14057,";//":14058,"IData":14059,"TD":14060,"cms":14061,"p4":14062,"tpl":14063,"x00":14064,"leverage":14065,"chip":14066,"convers":14067,"canonical":14068,"istream":14069,"Cover":14070,"ERED":14071,"Adam":14072,"modeling":14073,"tabbed":14074,"143":14075,"EXCEPT":14076,"probability":14077,"failures":14078,"repeats":14079,"RAW":14080,"widely":14081,"PictureBox":14082,"instantly":14083,"Compatibility":14084,"GL_TEXTURE_2D":14085,"'...":14086,"VIM":14087,"dst":14088,"i1":14089,"iFrame":14090,"vw":14091,"wn":14092,"became":14093,"iling":14094,"newlines":14095,"diagno":14096,"Strict":14097,"INIT":14098,"OnInit":14099,"marketing":14100,"Personal":14101,"socket_":14102,"Autorelease":14103,"surrounding":14104,"hacking":14105,"footprint":14106,"cheers":14107,"Great":14108,"Locations":14109,"college":14110,"impersonation":14111,"=-":14112,"A4":14113,"IMy":14114,"Lon":14115,"TW":14116,"eof":14117,"jre":14118,"getString":14119,"workers":14120,"Intranet":14121,"imate":14122,"irb":14123,"WebKit":14124,"referred":14125,"113":14126,"207":14127,"ISP":14128,"blind":14129,"availability":14130,"cleaning":14131,"paypal":14132,"scheduling":14133,"incremental":14134,"auth_":14135,"Patterns":14136,"Artist":14137,"Techn":14138,"(=":14139,"Candid":14140,"JRuby":14141,"P1":14142,"UNS":14143,"ZZ":14144,"_int":14145,"threshold":14146,"toy":14147,"all_":14148,"ntact":14149,"str2":14150,"addy":14151,"addslashes":14152,"stringBy":14153,"tablename":14154,"Weird":14155,"placement":14156,"IPSUM":14157,"leaning":14158,"administration":14159,"Checkbox":14160,"pg_":14161,"ICK":14162,"refreshes":14163,"Administr":14164,"assertion":14165,"Markup":14166,"wireless":14167,"224":14168,"?±":14169,"Average":14170,"FLO":14171,"vt":14172,"as_":14173,"myMethod":14174,"portions":14175,"priv":14176,"EventLog":14177,"eyes":14178,"0x94":14179,"brev":14180,"Linq2":14181,"Grant":14182,"Finder":14183,"declarative":14184,"drops":14185,"IsNull_":14186,"OleDbConnection":14187,"jqGrid":14188,"independently":14189,"'(":14190,"_4":14191,"_buffer":14192,"lisp":14193,"pter":14194,"slug":14195,"repos":14196,"exclusive":14197,"myVar":14198,"essment":14199,"ETA":14200,"GetObject":14201,"scrolled":14202,"suggesting":14203,"166":14204,"640":14205,"facilities":14206,"137":14207,"removal":14208,"HeaderText":14209,"Minutes":14210,"transferred":14211,"servation":14212,"Peer":14213,"WEEN":14214,"<![":14215,"TRANSFER":14216,"Requirements":14217,"Privileged":14218,"nesting":14219,")&":14220,"BIG":14221,"Svc":14222,"Soup":14223,"fw":14224,"pager":14225,"trend":14226,"insensitive":14227,"oning":14228,"som":14229,"sometime":14230,"folio":14231,"controlling":14232,"Cool":14233,"disallow":14234,"descript":14235,"numberWith":14236,"initiate":14237,"SqlDataAdapter":14238,"'][$":14239,"LOREM":14240,"cssText":14241,"DAV":14242,"watching":14243,"EmployeeID":14244,"determines":14245,"IntelliJ":14246,"TORRET":14247,"CASC":14248,"Fit":14249,"bject":14250,"das":14251,"dream":14252,"fwrite":14253,"las":14254,"lash":14255,"the_":14256,"004":14257,"endian":14258,"Proj":14259,"imap":14260,"partner":14261,"validators":14262,"193":14263,"Instanti":14264,"clearer":14265,"Labels":14266,"Suppress":14267,"EC2":14268,"x86_":14269,"squares":14270,"Messaging":14271,"Preferred":14272,"CASCADE":14273,":{":14274,"D3D":14275,"F2":14276,"iN":14277,"semap":14278,"solete":14279,"conform":14280,"conclusion":14281,"myserver":14282,"iler":14283,"codeplex":14284,"webcam":14285,"raco":14286,"ClassDef":14287,"orderby":14288,"relates":14289,"aker":14290,"ImageMagick":14291,"reasoning":14292,"ALOC":14293,"reality":14294,"travel":14295,"442":14296,"IDEs":14297,"MOVE":14298,"Feel":14299,"to_s":14300,"Edge":14301,"literals":14302,"Php":14303,"tinyint":14304,"Evalu":14305,"awkward":14306,"_for_":14307,"Thumbnail":14308,"TinyMCE":14309,"composed":14310,"IFIER":14311,"convinced":14312,"Anchor":14313,"?(":14314,"Jav":14315,"Nok":14316,"xampp":14317,"icious":14318,"perdir":14319,"imension":14320,"ForRowAtIndexPath":14321,"interview":14322,"backward":14323,"AddWithValue":14324,"templating":14325,"didnt":14326,"instanceof":14327,"lightbox":14328,"presents":14329,"OpenOffice":14330,"},{":14331,"buffered":14332,"shortest":14333,"Previously":14334,"VARI":14335,"Connecting":14336,"StructureMap":14337,"JNDI":14338,"Greetings":14339,"%,":14340,"?$":14341,"AFA":14342,"EG":14343,"PIP":14344,"aid":14345,"jruby":14346,"Thu":14347,"fool":14348,"(\"\",":14349,"page_":14350,"INC":14351,"ASI":14352,"Determin":14353,"underline":14354,"NSUserDefaults":14355,"tribution":14356,"relating":14357,"LINK":14358,"exited":14359,"Idea":14360,"ucing":14361,"NGTH":14362,"increased":14363,"Launching":14364,"SYST":14365,"glow_":14366,"Dave":14367,"Spl":14368,"Tue":14369,"YAH":14370,"nunit":14371,"zi":14372,"colored":14373,"uted":14374,"nearest":14375,"--;":14376,"Remember":14377,"app1":14378,"noise":14379,"listView":14380,"call_":14381,"main_":14382,"Colour":14383,"Unauthorized":14384,"tens":14385,"mbian":14386,"Shut":14387,"154":14388,"realm":14389,"DOES":14390,"Joel":14391,"concerning":14392,"AppendLine":14393,"Allowed":14394,"udge":14395,"nightly":14396,"IVE":14397,"Locator":14398,"concatenation":14399,"prompts":14400,"Hardware":14401,"Coordinate":14402,"TIFF":14403,"opportunity":14404,"xwork2":14405,"FW":14406,"Rpc":14407,"ju":14408,"vid":14409,"en_":14410,"aly":14411,"ama":14412,"terribly":14413,"Fortran":14414,"viewWill":14415,"subfolder":14416,"customization":14417,"XMLParser":14418,"ITLE":14419,"fixtures":14420,"Perforce":14421,"Outline":14422,"ears":14423,"deciding":14424,"Logical":14425,"CLUST":14426,"Overlay":14427,"optimizing":14428,"Dropdown":14429,"grabbing":14430,"descending":14431,"uppercase":14432,"Pixels":14433,"dozens":14434,"German":14435,"BETWEEN":14436,"YAHOO":14437,"1f":14438,"536":14439,"C3":14440,"Mater":14441,"Tbl":14442,"[,":14443,"killed":14444,"sproc":14445,"xr":14446,"invalidate":14447,"ono":14448,"onchange":14449,"reput":14450,"rewritten":14451,"stl":14452,"chmod":14453,"agile":14454,"readline":14455,"Revision":14456,"TypeName":14457,"postbacks":14458,"facil":14459,"Responder":14460,"targeted":14461,"wrappers":14462,"Agency":14463,"afx":14464,"'/'":14465,"Answers":14466,"succeeds":14467,"zeros":14468,"(...);":14469,";-)":14470,"Prec":14471,"]',":14472,"_NO":14473,"_template":14474,"_options":14475,"_queue":14476,"ske":14477,"react":14478,"weaver":14479,"observed":14480,"Dead":14481,"subdomains":14482,"Disp":14483,"ContentPane":14484,"contexts":14485,"Transition":14486,"fullscreen":14487,"svg":14488,"detects":14489,"maintainable":14490,"CHARSET":14491,"offered":14492,"Dirty":14493,"beside":14494,"kernel32":14495,"craft":14496,"publication":14497,"HotKey":14498,"vulner":14499,"valuable":14500,"Dummy":14501,"Ele":14502,"Fade":14503,"Rank":14504,"V1":14505,"adecimal":14506,"jpa":14507,"nuts":14508,"rain":14509,"scons":14510,"isValid":14511,"secs":14512,"ardi":14513,"unzip":14514,"plink":14515,"qui":14516,"sibling":14517,"getX":14518,"eting":14519,"thernet":14520,"Repo":14521,"carousel":14522,"AS2":14523,"FileAccess":14524,"primes":14525,"::::":14526,"templated":14527,"NSAutorelease":14528,"financial":14529,"MethodInvocation":14530,"jsf":14531,"County":14532,"Prism":14533,"terminology":14534,"dealt":14535,"StatusCode":14536,"VMware":14537,"CRC":14538,"PEAR":14539,"HOW":14540,"}\"/>":14541,"Clearly":14542,"aliases":14543,"measurement":14544,"underscore":14545,"ebp":14546,"TcpClient":14547,"Meaning":14548,"DATABASE":14549,"Chooser":14550,";'":14551,"Nil":14552,"PA":14553,"_line":14554,"bfs":14555,"e0":14556,"t3":14557,"thand":14558,"ays":14559,"(\",":14560,"table_name":14561,"TextReader":14562,"WindowsIdentity":14563,"refuses":14564,"Requested":14565,"divided":14566,"135":14567,"AddressOf":14568,"scanning":14569,"mechanisms":14570,"Capable":14571,"fourth":14572,"DEFAULT_":14573,"insights":14574,"App_Code":14575,"presume":14576,"Earth":14577,"imensional":14578,"Favor":14579,"HANDLE":14580,"wget":14581,"lopen":14582,"liked":14583,"Them":14584,"suff":14585,"getId":14586,"assini":14587,"Exe":14588,"Arc":14589,"custom_":14590,"before_":14591,"brevi":14592,"braces":14593,"decryption":14594,"133":14595,"170":14596,"223":14597,"Acro":14598,"Workbench":14599,"assignments":14600,"cleanly":14601,"Blocking":14602,"MA_":14603,"RAIL":14604,"lacking":14605,"minimized":14606,"unexpectedly":14607,"assumes":14608,"AAAAAAAA":14609,"crawler":14610,"COMMIT":14611,"Fig":14612,"TB":14613,"_set_":14614,"fh":14615,"reused":14616,"resolving":14617,"theless":14618,"eno":14619,"oft":14620,"beat":14621,"somed":14622,"urs":14623,"getAttribute":14624,"Infragistics":14625,"Concurrent":14626,"usernames":14627,"StringBuffer":14628,"health":14629,"Decoder":14630,"___":14631,"Button_Click":14632,"crt":14633,"earth":14634,"digging":14635,"PROG":14636,"Logged":14637,"duplicating":14638,"sumptions":14639,"stepping":14640,"Demand":14641,"LOCKS":14642,"substitution":14643,"July":14644,"obscure":14645,"ClassDefFound":14646,"Berry":14647,"Mc":14648,"Mart":14649,"San":14650,"WScript":14651,"aque":14652,"bright":14653,"cas":14654,"mad":14655,"ni":14656,"nce":14657,"rror":14658,"spo":14659,"|--":14660,"inactive":14661,"stress":14662,"dataTable":14663,"Deal":14664,"spans":14665,"Parallel":14666,"KeyPress":14667,"VisualSVN":14668,"stylesheets":14669,"ContentLength":14670,"redirect_to":14671,"subclassing":14672,"InnerException":14673,"Automatically":14674,"Choose":14675,"mvn":14676,"IgnoreCase":14677,"214748":14678,"substitute":14679,"acquire":14680,"weren":14681,"Medium":14682,"cruise":14683,"Dash":14684,"JTextField":14685,"SQ":14686,"_module":14687,"_keys":14688,"junk":14689,"ku":14690,"pthread":14691,"researching":14692,"stone":14693,"ulations":14694,"shuff":14695,"formulas":14696,"timeline":14697,"DoStuff":14698,"hoc":14699,"ghc":14700,"',$":14701,"Quad":14702,"syml":14703,"longest":14704,"connectivity":14705,"190":14706,"Depending":14707,"IL_":14708,"incremented":14709,"FastCGI":14710,"pigImage":14711,")\",":14712,".\",":14713,"/\",":14714,"525":14715,"720":14716,"LAGS":14717,"NB":14718,"VIS":14719,"bidden":14720,"eh":14721,"f9":14722,"ole":14723,"meter":14724,"abber":14725,"usive":14726,"quo":14727,"Whatever":14728,"ToOne":14729,"make_":14730,"fieldname":14731,"Unload":14732,"Visio":14733,"Configur":14734,"hashCode":14735,"Booking":14736,"MY_":14737,"CastException":14738,"Geometry":14739,"gonna":14740,"colleagues":14741,"BUTTON":14742,"num_rows":14743,"encapsulate":14744,"WRITE":14745,"Association":14746,"Asynchron":14747,"'\";":14748,"1000000":14749,"Fred":14750,"Fish":14751,"Hint":14752,"Pin":14753,"SB":14754,"]?":14755,"_event":14756,"gly":14757,"hes":14758,"rpt":14759,"thx":14760,"strength":14761,"edy":14762,"neigh":14763,"ifr":14764,"Replication":14765,"webView":14766,"Sock":14767,"Annot":14768,"1010":14769,"LENGTH":14770,"existent":14771,"Compress":14772,"NoClassDefFound":14773,"306":14774,"153":14775,"crap":14776,"138":14777,"3300":14778,"captcha":14779,"hacky":14780,"collation":14781,"invoices":14782,"acceleration":14783,"excluding":14784,"RECORD":14785,"permutations":14786,"culpr":14787,"+\"\"":14788,"IFrame":14789,"Pic":14790,"Wave":14791,"_end":14792,"fprintf":14793,"hl":14794,"hung":14795,"pled":14796,"isnt":14797,
[...]
